[PAD]
unused0
unused1
unused2
unused3
unused4
unused5
unused6
unused7
unused8
unused9
unused10
unused11
unused12
unused13
unused14
unused15
unused16
unused17
unused18
unused19
unused20
unused21
unused22
unused23
unused24
unused25
unused26
unused27
unused28
unused29
unused30
unused31
unused32
unused33
unused34
unused35
unused36
unused37
unused38
unused39
unused40
unused41
unused42
unused43
unused44
unused45
unused46
unused47
unused48
unused49
unused50
unused51
unused52
unused53
unused54
unused55
unused56
unused57
unused58
unused59
unused60
unused61
unused62
unused63
unused64
unused65
unused66
unused67
unused68
unused69
unused70
unused71
unused72
unused73
unused74
unused75
unused76
unused77
unused78
unused79
unused80
unused81
unused82
unused83
unused84
unused85
unused86
unused87
unused88
unused89
unused90
unused91
unused92
unused93
unused94
unused95
unused96
unused97
unused98
unused99
[UNK]
[CLS]
[SEP]
[MASK]
d
##on
c
##er
s
p
a
##to
##re
##en
##ta
##ti
##in
##la
##el
di
##ri
##ra
##li
##te
##le
e
m
##un
##ia
n
##ro
##an
##ion
i
##ss
del
f
##he
in
##or
un
##lo
v
##zion
##om
la
##qu
##os
##ar
##ic
S
C
con
t
##es
per
al
che
g
##io
qu
il
##al
##men
##do
##is
##zione
##et
##no
##ca
su
##co
P
##ma
ri
##ere
o
L
-
A
l
b
##gli
I
##mo
##za
##va
de
M
N
##ci
##ono
##ol
##ce
##di
com
pro
Ã¨
le
##tu
##tto
1
da
D
##mp
se
nel
##da
##vo
##si
E
non
della
ca
##ch
##pp
##vi
##era
re
ma
an
##gg
si
una
h
##mi
##bi
po
##ve
##na
fa
##tÃ 
pre
##us
T
##tra
##..
##tti
##ter
##bb
tu
B
G
sta
so
##...
##de
##ni
(
2
##che
pa
##ica
##sp
##mente
##ione
R
##uo
##ina
##ff
##cc
##ran
##sso
##tro
##ssi
##tta
##ente
F
V
##mento
##se
ques
dal
##ui
lo
##ga
cos
ha
par
##pa
##enti
##sa
##ie
"
##ver
##zioni
##zza
sono
##so
me
##mb
dei
tra
te
do
pi
##ano
dell
##po
##go
##ten
ci
##tri
##cia
##tre
##tan
H
ne
La
##pe
##ale
O
Non
##ali
##ssa
ra
##ero
mi
##hi
vi
##ru
##iamo
##zz
delle
##ine
##uto
##ul
##me
Il
##con
##eri
##ene
##ini
alla
##etto
gi
##glio
##zia
##00
sul
mo
come
Q
##ando
##ino
Com
##sti
Ma
u
##rio
##enza
sa
piÃ¹
Qu
19
U
##pi
##ria
##gu
##one
##ico
pri
##ne
ti
##ggi
no
##du
gli
In
quel
##gno
li
ess
##tato
for
fi
##uro
ba
##chi
##sse
all
ad
imp
##tura
##bili
##etti
pu
av
##ggio
comp
##ici
##tare
##ani
##anno
questo
Si
sc
co
##ven
Per
Con
du
nella
##are
3
essere
Se
##tico
anche
##osi
ta
app
##uni
##dere
suo
##gra
ai
ar
##for
##sc
##ssione
##lu
##fica
##sta
##menti
sp
##bile
##tte
##zi
va
prop
Ca
##oni
vo
Al
##ato
##esi
##tel
parte
col
##per
Le
ven
##tati
##cce
J
##tori
##osa
na
##bbe
ter
##der
cui
##ur
##dia
##gi
##man
##gna
##gni
tro
ed
##ona
ris
ser
mol
##01
##ele
No
to
##um
ch
##glia
##lare
##ai
cre
cor
##esti
##endo
##tere
ho
Mi
stato
degli
solo
##lica
W
##zzo
pres
Pa
##ren
##ron
vol
qual
##etta
am
sia
sua
lavo
dire
##ba
pia
##tica
##rin
loro
##mpo
##ura
##tru
##tali
##ese
cosa
dalla
An
gra
##lan
K
##ze
##zio
alle
##orta
ve
disp
##ioni
4
chi
nuo
##ppo
prima
##anti
era
##chÃ©
##cco
inter
Re
euro
##am
pers
##gn
due
##erca
##il
##iso
Nel
bene
##ord
fu
abb
Do
200
##tore
vis
es
fatto
##uti
qui
spe
##ge
##missione
nos
##mma
5
gen
ric
at
tutto
##ello
##enta
##uta
##gia
Ho
tutti
europe
questa
##bo
##cca
pen
ver
##anto
anni
##dio
acc
##cch
fo
201
##forma
fare
hanno
far
ste
##).
##vis
gior
man
contro
en
##sid
gio
##orto
##pera
##ing
rela
dov
sulla
##ad
##cora
Ques
##at
semp
##ure
##osto
uno
ave
##via
men
mon
##),
##ena
molto
##res
mio
dis
Lo
chia
quando
##iste
Po
comun
##fi
gran
##que
Commissione
|
##'.
ro
##zie
Di
##as
tuo
##vol
nell
##tiva
##ccia
io
##vano
poli
##mer
car
risp
aff
##usa
De
6
##osta
succe
Ci
conc
cons
##tin
##sto
##ante
##ento
##ulti
##rebbe
##cu
##indi
Ti
Che
##rie
##",
##mina
Tu
##dre
dove
puÃ²
##iche
##uno
##fer
tempo
quello
##ck
cer
##ette
##gui
##bilitÃ 
##sione
secon
Ne
esp
##ian
gu
sos
prodo
##ome
dopo
Sono
fin
Ãˆ
.
##tante
trova
sei
Pro
##uoi
pubb
##".
##tivo
##ho
stra
ass
##gione
ancora
altri
##zo
nei
##ella
diver
##cis
memb
pun
##org
##lora
mia
Un
fe
qualc
Da
alc
quali
ten
7
quanto
fra
sotto
##ha
poss
us
dall
via
hai
modo
##ggia
detto
lavoro
##zionale
Par
##lamento
##ana
Pre
##ard
stata
##lizza
##etÃ 
##',
##azione
199
anda
So
##siglio
tre
possi
vita
9
Be
cosÃ¬
questi
##llo
##elli
##ggiun
##dica
servi
Sa
Stati
stu
##inis
sol
##pre
##ber
auto
##scia
mai
##zzi
##rante
##lmente
sempre
sca
##cio
casa
##pri
##rinci
tratta
##colo
##cqu
##ttura
can
##ttu
##19
forma
eff
bu
tor
##rare
##tt
##fe
##rato
Come
fon
##fa
8
##omo
##ice
##mbre
atti
##lla
##anza
Mar
##elo
parti
cir
ogni
por
inc
cen
sic
ini
##tale
prog
uti
spa
##ble
rego
Consiglio
ora
##unitÃ 
giu
Co
##mon
sal
##vere
diff
Vi
Sta
nelle
##esa
##ccu
##ostra
##tiche
##vitÃ 
comple
princi
siste
svi
piu
##tter
senza
##arti
sco
0
##anta
Ar
18
num
10
volta
##arda
#
##and
##gis
Ch
##ordo
##duzione
ga
pren
sto
##almente
capi
##titu
##esta
##fo
Ha
Ba
##tanto
off
mar
Gra
##vero
Gi
Me
##lazione
raga
mis
##fic
##conom
##tanti
poi
lei
informa
svilu
##tr
##etro
quella
bi
rapp
miglio
##bbiamo
dom
##alizza
impor
##ON
membri
##ghi
##ticolo
proce
##ttÃ 
Ok
##feri
##tamente
##rig
##imp
Oh
er
Cosa
sen
perchÃ©
##rei
##osizione
Dio
##CE
##una
##enze
##ton
tua
Su
lu
tras
##pra
conos
Ro
lui
Na
stru
##tor
##pen
##gono
el
proble
viene
##dente
##denti
ese
grande
partico
dai
noi
nece
##rica
primo
pic
proprio
Chi
##tive
##cci
##chia
cri
##th
##vvero
maggio
Questo
fino
##ltre
fun
##teria
lib
stesso
progra
##sia
##vato
##trib
##glie
fami
k
##amo
potre
##razione
dice
cittÃ 
##eni
â€”
##ell
##met
suoi
##col
##log
##ritto
##rÃ 
nuovo
caso
Fa
##bito
##elle
##tazione
senti
condi
Tra
arri
sin
sti
indi
and
##vole
lun
##tivi
diven
Ri
pe
SÃ¬
mondo
##ciale
europea
##ari
aver
cam
15
persone
go
##ssimo
pag
gru
fine
198
situ
stati
porta
##iente
##ggior
rip
12
ag
secondo
passa
fuo
quale
Va
##anda
##isce
mili
giorno
##ris
tec
For
Li
genera
##tten
nome
abbiamo
##oso
Fran
##zionali
â€œ
altre
econom
Ra
sistema
##ista
##tanza
comune
Vo
##.1
deve
asp
segui
##ich
colle
possono
##use
##sie
dello
##inter
qualcosa
liv
##uzione
altro
au
tutte
##lato
prodotti
inizia
camp
contin
##ranno
super
stan
cal
quindi
##van
intere
favo
z
don
vero
cosi
##mato
Uni
##all
entra
##cchi
mentre
Beh
##lari
posto
sopra
##erra
Io
setto
##omento
rigu
##ccupa
##ose
tutta
para
##gh
##rito
nor
punto
##sidente
ele
bamb
Gli
##tera
##mpio
lascia
Te
base
##ire
mor
Mo
##cri
##talia
##cita
biso
##ercato
org
Grazie
##lore
##stitu
Z
##anzia
##tenza
risul
##mbra
nostro
giÃ 
agli
siamo
##ziona
##tici
##ER
aveva
speci
San
##cen
comuni
materia
##gnor
##gato
##arÃ 
##cendo
##uso
##erva
fer
##vin
##ttiva
decis
##000
Ehi
contra
##gua
##ccio
##gre
##gue
##fini
##une
##ffic
cara
necessa
##tari
##dis
##iore
pubblica
Â«
##ustri
Y
##mmo
##dono
qua
gius
##diamo
pes
europeo
momento
opera
##ttore
utilizza
prote
##tano
Hai
met
ness
##anizza
##litÃ 
Una
cla
dalle
##.2
##rono
##app
andare
pensa
Fi
cose
pubbli
##inistra
##bbero
20
ComunitÃ 
##esco
gia
term
vic
17
popo
##tion
rin
##erci
##mm
##sioni
programma
tipo
Car
inf
##arsi
##ort
X
##lar
fuori
possibile
Sei
##sieme
tele
particolare
Bo
durante
tale
##eter
##Un
cu
perio
##inale
min
16
numero
##cere
Gu
rappres
informazioni
visto
##citÃ 
##ture
favore
paesi
avere
##ppa
finanzia
##vamente
applica
disponi
Mon
##ll
fre
##acc
camb
alcuni
##tario
##enzia
##val
##spon
14
conf
sviluppo
gruppo
##opera
uni
â€“
chie
circa
##ke
##st
attra
val
ado
Pi
##ritÃ 
fil
livello
sarÃ 
legg
loca
disc
,
visi
sulle
##ciali
##vono
acqu
mani
modi
##orso
allo
##meno
##tando
##EN
cli
parteci
vos
##pu
sui
##oma
politica
queste
##pere
##unque
##dato
posso
bisogno
Lu
fini
famiglia
ricerca
##line
sull
##rico
Pen
##qui
##mmi
To
##eno
natura
r
ru
os
vin
##fon
davvero
##uole
##tello
nostra
conten
des
##dera
##cono
opp
successo
abi
##dizione
##articolo
ins
erano
persona
##bre
Questa
conse
##ssion
w
ade
sue
##mmag
13
mercato
niente
##gere
conta
bo
##tata
##ute
Du
mus
interna
##tolo
principa
mie
11
den
conte
desi
verso
##ranti
##dendo
##vare
padre
##ssima
##rai
##orre
raggiun
oggi
197
##rsi
##gnore
insieme
otten
##uropa
##-1
##cato
voi
##esto
##entra
##enda
appro
Bu
##urezza
##sidera
commer
esa
Cos
continu
##erÃ 
##erto
trasp
setti
##AT
meno
seguito
negli
ren
picco
##ghe
settore
Cre
inten
soli
person
##com
cap
presenta
Parlamento
Quando
abbia
##verso
Perche
##Unione
prodotto
Jo
volte
##venti
ce
veri
on
##gnifica
rice
orig
##0,
periodo
gover
giorni
realizza
##ut
##alle
##mar
segu
##osti
esempio
##son
lin
##EL
centro
presente
piano
luo
regolamento
Ta
ulti
sarebbe
##dustri
anno
compa
##mana
dati
##ane
as
##dic
##cchia
Cor
##0.
profe
##tuale
meglio
incon
##eria
foto
##ritti
considera
##bietti
perche
##lio
defini
[
Stato
storia
##ty
qualche
##altra
cin
soci
##ES
##ordina
vedere
oltre
serie
fosse
sempli
##be
produ
nuova
voglio
servizi
molti
rec
reg
##ardo
rispetto
##rata
PerchÃ©
##labo
fran
##rre
bra
##eo
line
##denza
causa
film
problema
ciÃ²
##ist
sicurezza
chiama
Quindi
##tero
ide
costitu
Ser
regis
attivitÃ 
##ION
##arta
'
tran
torna
##gio
Allora
##mpi
##lia
Italia
##cchio
ricon
##tar
##AR
##orti
Dopo
##ulla
ricor
grazie
km
##teri
##-2
##land
##vece
fonda
itali
##graf
seconda
##altro
sembra
##truzione
##ay
##telli
##'?
##oste
vole
:
##isti
generale
dia
25
forni
##ttamente
Bar
cambia
##quad
##dita
##est
ben
significa
citta
relazione
Sp
Gio
importante
impe
pote
allora
tanto
24
##lus
aggiun
##==
##mpa
scon
successi
(1
##ry
##gare
prece
##oltre
media
tecn
Sc
Ora
##iace
paro
stai
gesti
pra
ann
stessa
##lle
vuoi
##OR
##2,
figlio
ore
istitu
limi
impre
##versi
##ei
or
##ok
##ministra
##attro
##cina
##ssioni
rius
sette
diversi
Pri
En
##iori
venne
uffic
##vesti
Gia
res
##dici
##IC
30
stabili
scri
caratter
puoi
II
richi
##ly
##AN
Presidente
scel
##eli
corso
produzione
societÃ 
sor
ruo
1.
organizza
terra
svol
Dis
san
vista
inoltre
##iale
##stica
male
evi
##omini
dato
##2.
##ssocia
##nte
Ja
controllo
lavora
norma
avuto
sito
Era
##ger
sci
##ccesso
##3.
##3,
paese
amico
condizioni
quad
madre
potrebbe
##accordo
Ve
nostri
invece
desti
cul
ani
##min
##fatti
direttiva
##1,
bar
##chio
##IT
##lori
##volo
indica
state
presso
Ga
struttura
Anche
##ttere
##ati
##cra
troppo
##iao
##dini
Col
##CEE
luogo
problemi
mod
##siasi
##199
##AL
inte
dir
Ric
ambi
servizio
fur
##/2
posizione
Bi
lungo
##lin
##5,
##dice
##IS
racc
qualitÃ 
diritto
##perto
quelli
faci
##taria
apri
##fici
##terna
##auto
qualcuno
##ts
parlare
grandi
##este
dicembre
##pro
##logia
##visione
##ula
morte
##isi
##lli
quelle
attraverso
##entale
macch
##isto
vuole
##trice
##mbi
strada
##grafo
otto
##mane
##par
conto
file
##itato
contrib
letto
guerra
ban
##sh
##OM
partecipa
sociale
compi
squad
progetto
##des
quattro
##icura
gui
##ka
##messo
##istenza
##gle
##In
modifica
sosten
facendo
appena
##4,
milioni
disposi
uomini
##acqu
Sal
certo
giugno
##sponsa
gioca
be
giorna
##bbia
##ppia
trovare
##icolo
##uore
deter
docu
adotta
effetti
##vento
##omi
dovre
previs
##trui
Dov
esc
ucc
Go
campo
consi
grado
##len
signor
vari
mano
misure
siano
arti
uomo
atten
lega
Bene
##ssero
elet
##tifica
##IN
##dito
prendere
##den
##--
##rire
##uomo
##6,
sai
##vata
piace
##deo
responsa
ali
alcune
dichia
qualsiasi
##ppi
##versa
##ann
##naio
##cando
Dove
riconos
miei
vengono
cio
##voli
##ffici
data
##dra
##alla
franc
termine
##zzazione
pron
Ver
devono
##tui
dec
of
Ecco
tal
prepa
##usto
mesi
tri
Abbiamo
##tron
Cri
singo
/
situazione
##poli
farlo
bambini
##ppe
supp
##omina
secolo
##bbli
quasi
musica
cerca
##ki
nu
##zze
subito
##8,
##dd
sapere
meri
##'...
pie
oss
Hotel
fron
New
##bra
##onore
stori
##9,
##lano
nove
corpo
##ste
Ger
##bilmente
22
vostro
minuti
##bblica
##au
dol
##tate
destina
garanti
##mentare
attu
##ag
spesso
registra
21
comunica
Spa
semplice
propri
...
Sai
decisione
â€
necessario
proposta
nazionale
tali
anima
##dare
##operazione
##uma
##ea
##mano
Qual
preo
##cher
possiamo
GU
##7,
testa
mostra
edi
paragrafo
capa
â‚¬
Ciao
dispiace
##UR
donna
dovrebbe
##ata
perÃ²
##ttutto
##ndo
immag
Sto
##uncia
##ordine
##more
##ZION
##5.
##ume
presen
ragione
maggior
risol
##interno
migliore
compren
##stico
confer
##ner
faccia
##sci
##dro
quest
messa
differ
##mia
riguarda
(2
##ferimento
Or
ucci
forse
##4.
tecno
possibilitÃ 
stagione
##esp
##ettu
##cer
corre
conce
##bu
inse
adesso
##ir
##ph
Forse
notte
##dati
forte
anti
nessuno
##gnora
##vanti
##OL
##cano
processo
196
dip
velo
##gazione
centra
credo
diverse
luglio
Gran
Uniti
Val
##6.
relativa
senso
trovato
##mme
##diale
&
cas
ruolo
zona
dagli
otti
Roma
##ccol
preso
##torno
##coli
##isco
##vati
##uola
##ft
bre
("
##rti
ero
##fiche
partire
##lie
##ismo
nuovi
diritti
real
##30
devo
compre
membro
maggiore
bian
Ru
App
##50
##La
raff
vicino
Tor
poter
poco
##bbra
capo
testi
gente
avrebbe
linea
formazione
furono
gennaio
Nella
Ber
##don
studio
donne
Pu
##spi
pare
##arlo
gioco
ospi
##gliere
##ete
##vani
##anna
usci
##ttori
Fo
##av
##7.
##ffer
obietti
confor
##hai
Ad
##net
fai
posi
fis
##vamo
sicuro
titolo
##Il
##lati
form
settembre
##orrei
Voglio
ori
##mbo
cazzo
cultura
##mani
##8.
mini
Lei
Ges
##rati
##allo
prezzo
nello
profession
dim
##1.
procedu
interessa
nas
riusci
genere
rappresen
libera
##eb
##rlo
##gamento
##turo
##tenti
guarda
numer
governo
soprattutto
##ork
sera
moglie
cuore
principale
##tiene
##les
dif
sola
pazi
quanti
##tizia
nazionali
##duto
##ora
##ionale
Signor
nego
imprese
tar
ecc
effettu
determina
##ang
##hn
##trimon
aiuta
##ide
##ass
ener
esi
internazionale
nuove
##tture
##gnato
##unica
is
nulla
sf
nem
##zzato
dovuto
bilan
vera
##lusi
100
lingua
Siamo
stre
detta
CE
saranno
##ccupazione
sape
marzo
spi
##anze
perf
parla
##orse
classi
gratui
regione
##uri
ok
##UE
##gen
mas
rappresenta
##gne
prov
Man
the
costrui
##ficazione
##ultima
Ed
##bum
amici
risultati
utili
##ttera
simi
##dotto
manten
forza
##ggetto
vio
squadra
tuoi
##ichÃ©
cinque
##atti
##rmi
macchina
pubblico
diffici
##armi
totale
specie
##."
novembre
DI
##lata
Gre
domanda
rapi
##cente
##bbraio
##pubblica
##moni
##mare
misura
Ave
##tente
industri
finale
##die
investi
dare
##utazione
##tÃ²
aiu
compet
1,
ex
mare
##cche
The
progetti
almeno
offer
propria
dentro
valore
##ultimo
figli
collabo
##incia
Mol
settimana
primi
sud
francese
offre
##10
##9.
cura
##ko
##lina
rivol
abitanti
rif
quadro
Secon
##ompa
spie
mezzo
##vio
punti
##fico
23
Asp
DEL
##dico
passato
##iscono
giusto
##arci
assicura
deci
##pia
corri
##nova
Francia
invi
infatti
Certo
##it
princip
ul
pensi
ragazza
amministra
viaggio
##rale
##Europa
vostra
ottobre
molte
soldi
194
Ness
buona
possa
segna
video
meta
Signore
lettera
Ino
##mette
##rea
nonchÃ©
economica
confron
##ddis
##cos
die
giovani
##tego
##cro
Andiamo
discu
Inter
trov
##zienda
##dine
proba
segre
##ettare
##viso
##ster
ov
Fon
##illa
concor
GesÃ¹
luce
gestione
Cen
##chie
dobbiamo
##ler
##")
impa
dimostra
questione
##ficio
##rismo
affi
Ris
Inoltre
Ben
##IA
##eso
##gon
Devo
##eric
fel
##tezza
Tutta
##II
##ritorio
##tendo
##erienza
==
##scri
##smo
pol
devi
studi
avven
ascol
##ws
##uale
sba
sensi
febbraio
##ssere
proprie
##acqua
sede
##stin
##licazione
*
##lando
conosci
futuro
piccolo
##tana
sÃ¬
##vate
##/9
avete
##dy
Dal
cooperazione
rima
comunque
31
##dino
##mica
##ende
Comitato
serve
consegu
Is
coin
quo
##erop
personale
tuttavia
strate
Ste
##gente
prezzi
stare
basa
##rando
Repubblica
dimen
ricev
rive
territorio
28
50
associa
Ter
##rutta
scuola
pla
ragazzi
##mania
2.
Spe
##durre
Regno
fratello
##cor
mondiale
casi
##vid
camera
meto
##tur
sostitu
Sh
##inizio
preve
tradi
atta
John
##cenza
##TI
##unto
##ggetti
legis
Ven
##telle
##ziale
Fer
chiesa
avre
Europa
trattamento
##stra
##mati
protezione
Tutti
##tuto
legge
##arono
29
Bra
cercando
##ware
fanta
27
mese
realtÃ 
importanti
signore
##ed
aprile
autori
##sce
##ate
Potre
soltanto
##gioni
reli
##artamento
##ccasione
cro
sare
pratica
##terÃ 
##wn
##astanza
##mio
principali
seguenti
##20
##mettere
##canza
##merica
##gan
Cristo
##mite
prego
##ettato
regola
2,
##bri
##istiche
inca
integra
##vic
Ai
asse
richiesta
superiore
infer
incontra
prova
ragazzo
lon
scritto
metri
Wil
##unta
affron
migliori
##TO
##dri
PR
comba
rila
bilancio
Tuttavia
##art
aper
##mentazione
richie
scelta
pass
trattato
26
##care
disposizioni
centrale
ottenere
##11
provin
distrib
tur
ur
Solo
Prima
Lui
Ale
##80
fronte
##bina
Tro
##ggiare
note
fissa
Chiesa
bambino
fanno
situato
versione
motivo
##mentari
dedica
IN
##rÃ²
rile
figlia
capacitÃ 
Fin
civi
Tutto
importa
##ambi
rispon
Dobbiamo
sociali
##ardi
!
##ambito
parole
abbastanza
promo
liber
Secondo
##applicazione
##formazione
##ker
acca
fondamen
##resso
mer
Pia
sentito
bella
##lazioni
concer
guida
riman
##segui
Av
##ordi
##anche
frequ
cia
Pe
ada
affer
popolazione
##ins
moda
autoritÃ 
difficile
Guarda
camere
##damento
##visi
lavori
##rente
##verti
testo
demo
telef
##mere
equi
aiuto
dipen
rifi
pens
##cy
cittadini
obbli
##ito
siete
fal
soddis
pari
Th
rete
dan
Germania
programmi
presenti
Stai
##ya
usa
lan
##AS
morto
economico
som
+
##loro
spos
azioni
##im
##osito
ingle
Scusa
ultimi
##ley
##ggiorna
##tazioni
##versitÃ 
dimenti
riconosci
entro
spazio
identi
puo
##ja
Alla
sangue
nÃ©
aspetta
##trimonio
Cas
Sco
presidente
bri
##cisione
##mitÃ 
terre
##gge
funziona
stanno
polizia
##rano
##muo
Ce
Credo
resid
##tina
consul
trasporto
deri
##od
piacere
##olo
##ttato
temp
occupa
accesso
artico
necessi
presenza
##genza
venire
##tono
##....
pericolo
##crizione
##ccato
alta
##ZIONE
chiamato
mangia
mala
195
Tre
##venzione
fir
raccon
politiche
##vera
sistemi
giro
##ttor
##TA
glo
moder
osserva
##ostante
Je
Posso
pos
oppure
piedi
##zzare
##icro
##peti
##mata
svilupp
riferimento
buon
##gati
pesca
norme
portato
Aspetta
locali
precedente
posti
##cle
Vuoi
Senti
capito
##IO
##An
potere
ries
##Al
##ionato
##tevi
##ardia
Fu
nostre
piccola
##arten
Euro
basta
alto
pian
pace
profon
Giovan
##scita
##op
relativo
Cla
op
minis
direttamente
##zzata
##aria
rapporto
presto
ucciso
amp
origina
comincia
Ju
libro
##ditÃ 
##mail
gro
As
Maria
vanta
##vimento
##ree
Gen
##bus
##ania
Ge
disa
lÃ¬
costi
##Â».
##lub
sov
ferro
risorse
tornare
##ande
navi
proven
##ld
##40
##tanze
parola
concentra
sele
##gine
accordo
penso
All
costruzione
aiuti
Fe
Articolo
preno
pubblicato
##cciamo
##deva
terzo
ecce
spia
bagno
idea
voce
##rello
##logo
%
##minare
europee
Cal
soluzione
pochi
##lino
disponibile
##vie
manif
opport
Davvero
occhi
om
aere
##ua
chiesto
Lon
##diti
##duta
intro
convin
nord
##chite
##ficato
comporta
faccio
##ggere
Pensa
raccol
locale
pagina
##Ar
##bur
iso
obiettivi
settori
##OS
Am
##larmente
poten
resta
breve
cel
fase
##ick
assol
figu
ac
sce
ciasc
vendita
##tuna
##TE
##gliato
stile
##vidu
terri
tardi
relative
##onorevole
cristi
scopo
interno
##LE
##rate
catego
speciale
##yo
##arte
##data
##dÃ¬
completamente
messo
Lascia
pazienti
US
acco
disponibili
Geo
avanti
elementi
mamma
uso
voglia
varie
villa
##ressi
tecnolog
coinvol
40
clienti
animali
Qui
##terno
##riera
regi
##ttosto
##usione
##by
Conta
##grafia
schi
acqua
disponibilitÃ 
bio
essa
distru
caratteri
risposta
##usi
garantire
cucina
tramite
gre
continua
Servi
##teriori
##tretto
soste
Via
Sch
##LA
pure
specia
##mba
##rere
femm
##ssia
##risti
Vene
##vane
face
##tino
##vvi
ufficiale
##ciÃ²
Mer
##tuali
corrispon
Santa
?
bel
presta
comunicazione
##mbe
##gari
italiano
##ambiente
gruppi
##udi
Lin
##inte
riten
geni
##rla
Ag
##into
veni
##ssimi
colpi
##ric
##ficare
##poca
volon
##60
effica
comunitario
dor
##gata
Ni
0,
##omanda
Corte
##/8
succede
creare
unico
Ah
giuri
invia
Wi
##dale
##bato
##atto
Comp
paura
legno
raggiungere
scher
Prop
3.
sicura
signora
procedura
esist
##eroporto
##IV
riguardo
##ccan
rischio
sostegno
COM
piani
elettri
agosto
proprietÃ 
##lizzazione
Rom
##tito
regioni
##mmedia
preferi
##tis
Sembra
canz
giovane
##landa
essi
##tone
fatta
##dina
opere
bru
eserci
He
Can
##iali
â€¢
193
Dire
lotta
##area
Milano
treno
Questi
##bbi
bello
â€.
Nor
dollari
##metri
scopri
(19
tema
appare
##renza
##up
dep
##uito
##ccup
##TR
4.
piuttosto
soggior
##rci
Giovanni
superfic
commissione
sfor
##alisi
necessitÃ 
riun
##dimento
mino
##genti
##ug
modello
##AM
sore
costo
riguard
valutazione
##raggio
vivere
strumenti
##ffi
mettere
crescita
applicazione
Spagna
##vina
##icol
parere
##12
##piso
potuto
##erai
resto
##teriore
metÃ 
eli
interpre
##dotti
York
mente
Cro
fabb
Tri
pur
sugg
##ung
americ
capire
compon
##llare
tempi
##bro
umani
##mai
##ualizza
sfi
Alber
funzion
insta
stessi
veder
##dustria
inglese
conserva
##eserci
pon
mone
Camp
facile
malatti
rica
inseri
erro
##ttan
muo
avevo
Es
marito
vali
stazione
ni
entrare
esclusi
nessun
Durante
termini
Bri
conne
lavorare
fede
atte
##enziale
eventi
avevano
##ssemb
agrico
##gano
##ers
disposizione
articoli
settimane
proposte
entrambi
usare
fam
risto
lato
teso
##ment
##nero
##anizzazione
scom
andata
dietro
Nuo
consuma
##lazzo
##mera
colore
perso
Bel
nomina
Cer
sepa
##isola
coper
individu
sve
##ffa
davanti
colon
comunitÃ 
Puoi
Devi
competi
##ftware
mal
deciso
Nell
##ny
Imp
##ttina
quei
diretto
impie
##idea
massima
andato
formula
##tatori
egli
sara
medic
Har
##posto
Ogni
hotel
vitti
EUR
bigli
##dire
puli
intra
Cha
Bru
Pren
poichÃ©
sper
trasc
vesti
##isci
collo
mina
##biettivo
pensare
prender
merito
##----
pensato
gas
##inf
##uzioni
##ras
##rus
tito
##ill
massimo
lar
##umi
fondo
##entemente
provincia
interess
sub
scena
aspetti
Giu
probabilmente
##lici
##end
##orsa
##enso
immedia
esso
##gel
funzione
192
##uter
sconfi
salute
cele
blo
spetta
acce
indipen
relazioni
##cre
meccan
estre
naturale
##enna
teo
Sca
preoccupa
fatti
acquis
seguente
##ssibile
Niente
Centro
##late
offerte
stiamo
porto
parlato
Dai
##attivitÃ 
portare
complessi
##su
Ka
indo
lasciato
##GU
Villa
##zzando
##las
messaggio
varia
dici
Itali
##ada
scamb
##Italia
set
ir
accompa
##ranea
Alc
vede
supera
riti
Vole
peso
online
##ting
risultato
Quello
##eranno
dise
multi
nemmeno
##mone
caccia
quell
3,
##arla
##id
stampa
lavoratori
##oro
##ttivo
Des
caratteristiche
abband
carta
##isa
##90
Unito
crea
##etra
##sca
web
carriera
##edi
evitare
apparten
##useo
migliorare
tecnica
veritÃ 
piena
collega
monta
##ET
spor
materiali
permette
vorrei
occasione
##ssico
commercio
presti
##pol
##tela
##-0
controlla
creazione
stand
consenti
partecip
profi
stanza
Uno
Capi
Stu
El
##rizzo
Sul
##ppon
GiÃ 
##esione
basso
##alitÃ 
europei
##orno
batta
uscire
##date
finito
##damente
album
soggiorno
Franc
tue
ordine
##int
numerosi
felice
##tal
farma
belli
##fficio
##omma
modalitÃ 
##ong
andiamo
2007
ordina
Men
Qualc
##ave
colpa
campionato
TV
##istica
superficie
gara
CosÃ¬
##mmobili
##cati
Altri
##industria
prosp
valori
##IL
##ud
trasferi
##glior
##arto
lista
Bro
difficol
materiale
##ppiamo
##16
pelle
telefono
##70
##pren
##tenzione
##chÃ¨
regime
bianco
carica
##gica
ricevuto
giustizia
mos
classifica
raffor
memo
principio
suffici
Char
##truttura
vedo
aggiorna
glob
medico
cine
passare
##lea
##cata
ringra
Geova
mediante
##32
rifle
##tarie
##yn
giochi
noti
##uire
Vai
genitori
sani
contempo
radio
##stiche
coordina
usato
##gie
recu
vitto
perc
dicendo
##vista
giornali
##rigi
bal
cercare
##lusione
cic
zone
##erti
prende
roman
sala
giar
cellu
##estra
vecchio
papa
stava
agg
sugli
Okay
Stan
##unico
##inio
spese
consider
##nia
##EC
##tec
##und
scienti
diventare
domande
Ban
##ramente
livelli
##umo
Don
##minazione
dieci
dico
pertanto
ama
##vocato
##eremo
giornata
##ianti
ge
##gore
##ise
Num
contatto
Paesi
lunga
tesoro
responsabilitÃ 
##);
##sera
unitÃ 
tru
visita
amore
festa
tedes
Casa
partecipazione
alcun
raccomanda
##muovere
##ID
Porto
classe
beni
Buon
##aiuto
quarti
distin
##ky
Home
##onia
##ser
##arma
attenzione
sentire
##tiamo
##tner
##derÃ 
riserva
ritro
##amore
viol
##mamente
disco
##ricol
libertÃ 
##econom
piccole
interro
##viene
CiÃ²
intera
##matica
internazionali
##ener
##temi
##attu
perdere
inci
sottoline
tip
pis
conoscenza
sosp
##tella
incl
libero
##35
##mos
piccoli
Traduzione
fuoco
software
##vale
Nord
mm
nota
##cuzione
##ee
computer
inferiore
indietro
giudi
passo
##metti
##estre
speciali
Yo
singolo
matrimonio
dimensioni
fossi
mandato
##The
carrello
##vali
##colare
arre
Penso
Dom
privato
reale
tipi
facciamo
spagno
miglia
oggetto
diavolo
professionale
gener
permet
##UN
##15
##3)
##ortazione
democra
##utamente
Jack
Dani
interesse
prime
belle
sche
Acc
Â»
simile
##omb
##cella
italiana
immagini
inclu
##.,
##OP
storico
##ritu
carattere
vivo
##inali
##del
##formazioni
##eff
scar
domani
completa
##.0
Poi
##frica
Ass
##MI
strumento
##wa
Ade
aumen
##ED
documenti
difficoltÃ 
CON
##cip
##fia
confronti
peggio
popolo
combina
prove
collaborazione
assa
avrei
##missa
##rone
2000
Terra
fortuna
Decisione
60
torn
##artamenti
reali
##ustria
Mal
##ct
nessuna
influ
Venezia
##atore
##Uni
venuto
incre
capitale
##dotta
vai
direzione
campa
sb
##zzati
sorella
##quisi
migliora
##ghezza
studia
relativi
intorno
tranqu
##obiettivo
##gnare
esiste
religi
##AC
prio
##renze
##artimento
chiaro
nucle
rispetti
Ul
precedenti
miglior
##icoli
feri
##.000
veramente
Vorrei
##-19
##inta
commerciale
##cola
arrivare
XV
esperienza
descri
sole
Paolo
possibili
Forza
affari
garan
##genze
metodo
##ranza
articolo
maschi
##vel
organ
##shi
disse
campagna
##poni
##lante
##tch
stupi
##cazione
##/200
2015
esser
##impor
nasc
##tua
Bal
sess
Colle
##ue
ritorno
Poss
civile
semplicemente
##EG
2016
elabo
micro
##tuni
##trici
Poli
rep
pieno
Sam
chiamata
medio
proveni
negozia
utilizzare
potra
aiutare
durata
neanche
##messa
avvia
Parigi
esten
motore
##75
cm
regionale
forme
##ex
Ascol
##ziende
Bol
##ght
etÃ 
##ionali
Noi
##iona
sacco
utilizzato
deli
dallo
esegui
massa
crisi
codice
##ssie
Mic
precis
conqu
dovrebbero
concorrenza
##Con
Super
veloce
##presa
missione
cioÃ¨
origine
caff
sesso
##monia
Tom
eh
sezione
volevo
##gnia
distanza
presentato
##US
mu
Hanno
tempera
##tann
Stra
anch
Vieni
velocitÃ 
##lib
fece
alber
##dite
soff
Carlo
90
Mc
##impre
particolarmente
aperto
coloro
##ppio
##ercati
forn
forze
##enco
##ppure
quantitÃ 
filo
2010
##ccorre
##cla
##atro
##hotel
##gante
vostri
Tur
##grafica
##bba
contratto
##ttive
rafforza
##veri
perfetta
famiglie
35
##neo
x
attre
##ammi
credi
Ali
##mine
##'!
contesto
chiede
informazione
mg
ormai
Chia
AL
##ast
even
contenuto
fornire
manifesta
verrÃ 
j
terzi
candi
rende
potrebbero
##forme
fid
strategia
successivo
##terra
sosteni
def
circos
economici
Due
energia
cresc
##Le
strutture
##45
comunitaria
##razioni
famili
design
##alto
conosce
passi
avanza
##MA
fiume
##renti
2012
proposito
dunque
maggiori
Internet
utenti
proto
immobili
maniera
##tagon
chiave
##inato
desidera
vive
##Ho
ragazze
dormi
##ustra
##telo
trib
2014
aggiunto
ripro
Cio
Monte
IV
ps
##missioni
##ssuto
##):
Win
Veri
condu
serio
posta
##car
risoluzione
nave
morire
verde
confe
adegua
riduzione
parlar
appre
simbo
##CA
tecnologia
Sie
trovano
##azioni
##Qu
divenne
2005
##unti
progressi
Pol
sinistra
Mio
Contin
investimenti
##censioni
##85
##dero
##ismi
lÃ 
sopp
##39
parlando
responsabile
32
battaglia
fondi
##zionata
##sco
passe
fru
tenere
pan
##pote
politico
accordi
2011
standard
vanno
vigore
##desco
III
Ex
##ccid
rendere
pubblici
##6)
##icamente
caval
Pla
ebbe
Cli
##tional
prossimo
posse
capisco
Oggi
##we
Cap
mezzi
##epoca
linee
##desi
vediamo
sopravvi
Nessuno
##riamo
sali
##tz
chiedere
##inamento
reci
emer
Numero
##cale
Adesso
conven
differenza
Del
lasciare
prevede
##ortare
sap
##organizzazione
##essere
##estro
estra
Oli
accetta
Sara
##lico
armi
##cino
2013
2009
commerciali
sfrutta
cielo
2008
##tativo
nero
##golo
stelle
##nato
inizi
##ddo
attualmente
documento
##wi
##89
##grazione
Fra
##centi
Cu
corte
contiene
ton
tari
##82
regole
##/0
##energia
##amma
##bella
##volta
lancia
##14
##bia
Gui
femmini
semb
##eravi
diventa
##icidio
##rov
digi
##bbene
destra
Svi
Queste
##ttare
##Ma
osta
realizzazione
arg
ferrovia
simili
decisioni
##minato
arriv
Vedi
##dor
##dano
##dosi
partner
##erv
div
Bre
##dizioni
tanti
##ggiato
ecco
##voluzione
##ita
trasforma
et
##dazione
movimento
fabbrica
categoria
##gliono
##ortato
morta
mercati
##cin
##ward
##tene
spirito
##ssociazione
consiglio
solle
Â­
##zzano
operazioni
tecniche
paio
strani
im
Minis
pagamento
##ath
##mpia
merci
stron
##landese
utilizzati
aziende
##gliare
##tuniten
chilo
reti
##America
mantenere
vittoria
aree
##ens
Londra
crede
umano
##III
vino
son
##utare
##87
##ATO
2006
energe
arriva
2004
##enn
##informazione
##dam
##mico
pom
perman
##accesso
espri
##gico
cibo
Interna
militare
Rober
Sare
##bita
##ianto
##missario
##escovo
Auto
##my
dio
##NA
canzone
denomina
innova
rega
infine
colori
##Ca
affin
provve
principi
vale
##hia
##terni
statuniten
##iono
cond
nascon
##collo
##ccare
discussione
##Or
conseguenza
ieri
annun
Vic
pronto
prese
##batti
necessaria
=
Firenze
saper
Eli
ospiti
vacanza
effetto
Pietro
uccidere
sento
Wo
solito
esattamente
Desi
affrontare
##tivamente
istituzioni
attrib
##ALE
componenti
permesso
elettron
##aren
atto
##8/
andando
batter
diso
##riturismo
ritor
riesco
portata
musicale
##boli
Papa
venti
efficace
Res
Wal
##istente
metter
questioni
iniziato
dro
sÃ©
cliente
##gina
intende
Sud
##ducia
##erale
##ppone
##ervato
##pÃ 
concern
##77
azienda
scambio
vor
grave
##tus
adottato
##vazione
dar
noto
At
##erÃ²
pilo
##ttino
Vol
##86
comitato
##orge
facilmente
rimane
##azienda
fol
##viamente
acque
nonostante
nega
tedesco
##elles
##raneo
onore
##amente
vie
britann
##Fi
aspetto
comprende
Rich
Tale
spiaggia
cambio
cook
Cina
soddisf
aumento
continuare
pressione
stesse
oggetti
vinto
risulta
giardino
supporto
creato
##dersi
diverso
Europe
##intera
ripa
##zzate
##zzera
federa
Ji
Esp
##tes
##intere
##tic
partita
)
##gnata
generali
##ccidentale
naturali
Tran
Fre
originale
trasporti
##scio
##34
interessi
4,
##"?
pezzi
scoprire
provo
sale
costru
##fera
carb
terza
##ruppo
Dovre
##tidia
##logico
credere
##sch
complesso
Dia
Pensavo
caus
agi
mappa
##vita
##lustra
##31
antici
gratis
guada
Quanto
sho
##attuazione
rischi
##ash
stia
imb
dena
ridurre
##esperienza
##din
Porta
banca
Aggiun
Nazionale
formato
conso
##ent
consumatori
esigenze
##sidenza
##trin
avvic
##album
scegliere
ord
##25
genti
ritar
##endere
avesse
##occupazione
Vin
emo
spiri
##anzi
umana
dra
benefic
certifica
pal
case
desider
##uali
prossima
ispi
##anora
##cole
contributo
importanza
##cheggio
##rvi
##gnati
##37
previsto
ricordi
Esa
##spe
Andre
Verifica
Santo
segue
din
##ans
giocare
potete
numerose
meravi
adatta
controllare
Nei
malattia
organizzazioni
difesa
Possiamo
zu
errore
protagon
modelli
lontano
compagnia
##rendo
##OT
circon
sappiamo
dovrei
##utili
mette
considerazione
presa
esperi
finanziario
##mini
##nie
##ps
IS
##84
##.200
##diter
Au
Servizi
##ensi
inda
##trÃ²
##ader
##ssic
##ellente
amo
voleva
##IM
##fre
Anton
##ames
Bla
mono
Signora
promuovere
##zionato
procedure
##36
giappon
##rina
PiÃ¹
potenzia
considerato
necessarie
minaccia
##istere
##pedale
##nale
espre
##mate
riforma
motivi
vado
Francesco
Allo
LA
##:00
(4
##ney
ricordo
prefer
dettagli
Cana
Gro
successivamente
voluto
Salve
racco
scoperto
morti
Molto
ulteriori
Gar
Pron
Ero
alcuna
emen
denaro
percorso
##rlanda
det
normale
riesce
orienta
dottore
como
##AZIONE
legisla
eletto
vennero
azione
##ling
##canze
Hen
consente
studenti
scio
##je
rico
##vello
##economia
tera
##estival
##tutto
decora
migliaia
##asp
alb
conforme
particolari
dovremmo
cambiare
##pensa
##vendo
test
gratuita
promozione
Ke
carico
##hael
edizione
comando
Ini
##allegato
##media
diretta
##mazione
cena
direttore
club
##ricoltura
bocca
##ttivitÃ 
Frank
Cerca
chiu
giun
terro
##tun
quotidia
attimo
doppia
fondamentale
Descrizione
incontro
Alcuni
ottenuto
2018
Pres
##mor
America
personali
##bin
##cento
funzioni
191
##immag
Preno
##rali
capp
industriale
##osci
immediatamente
mangiare
volo
tenuto
visualizza
definizione
##teo
Quella
culo
carne
soggetti
##xi
2001
##/201
affinchÃ©
##RA
2017
scelto
fiducia
##ado
##99
ideale
Oltre
Sin
>
ultimo
Spi
battu
##cell
globale
##contro
Inf
##osc
consa
turi
arra
tecnologie
Ins
##gresso
transi
dura
farti
##iano
Basta
fan
capelli
seguire
provato
pisto
prospetti
ugu
Er
##inare
affa
condizione
edifici
##blio
##vola
##matico
Mamma
##sÃ¬
##ianco
territori
Mos
##"),
archite
vogliono
##gin
piscina
composto
##erie
catto
utile
conosciuto
Padre
##cone
tener
vecchia
diversa
poteva
mattina
##opp
stasera
cata
##tÃ¹
dibatti
prestazioni
guard
Tutte
realizzato
conoscere
Ascolta
##appro
tradizione
leggere
circo
condivi
Qualcuno
calcio
##ks
##ot
abbandon
##CI
Por
buono
regno
80
##omenti
##ant
##messi
insegn
rapporti
##ttimo
Fai
concre
oli
alterna
compito
##dimenti
ambiente
##anni
terreno
dogan
flu
fossero
500
recente
impo
scusa
##istitu
specifica
##xelles
schia
retro
Sape
iniziative
indipendente
costante
David
##yl
roba
televisi
Arri
##verno
Mia
appartamento
Alex
##lievo
##ys
provenienti
##orig
rifer
fratelli
strano
dÃ 
##ciamo
##3/
45
episo
venga
##ministrazione
oro
riporta
##iando
##ssore
##giorno
localitÃ 
##detto
passaggio
##gistra
dispone
discip
##unale
##word
Peter
##EI
36
vir
colla
organi
torneo
##ore
##ZIONI
Mentre
installa
Avete
produttori
distribuzione
riunione
rie
##non
funzionamento
ristorante
annuncia
distretto
Nelle
Mor
Egli
##reste
addi
##cera
auton
specifiche
##ratori
considerando
coppia
CES
Pon
##cali
##eth
##Non
ricos
Gol
##ratorio
Negli
Hol
perfetto
situata
figura
Vis
sviluppa
##tensione
dimin
aria
##Re
sovra
##deri
labo
parco
##urgo
ritiene
villaggio
rosso
paga
##eld
fres
propone
Capo
##sile
Sve
##ultura
riferi
PER
##stro
rientra
##1)
##AP
Michael
##dibile
dichiarazione
geo
rispondere
costa
##ssime
bus
governa
Lavo
sullo
##cÃ¬
eri
##attuale
##49
ripren
Natale
divertente
Sha
raccolta
##fferta
rilascia
##done
##inse
##wo
Mus
scor
blu
inn
obiettivo
##entali
70
contrario
##centuale
190
##ssare
Ele
Voi
confli
finanziamento
Sar
##impresa
accia
##can
##cura
red
##gimento
volontÃ 
##pevole
minimo
ricorda
Proprio
2002
urb
trans
raggiunto
##ggiamento
Immag
##trÃ 
##UniversitÃ 
Hu
##CO
fen
##ffico
##osco
qualunque
dina
dipartimento
ing
##42
supple
##stici
completo
##cuti
AC
Bruxelles
requisi
fondamentali
lie
Napoli
gri
##ach
5.
reso
Ten
##ettati
Disponi
parli
luoghi
fle
fiori
Grande
cercato
##88
volume
;
Pic
##ssato
ana
possano
##derti
##mici
metodi
menti
principalmente
##ssieme
Hi
dovrÃ 
##lendi
bordo
##gini
##ham
Phi
mobili
band
##glianza
##wer
##gramma
sostanze
##raele
scorso
sapevo
ub
##ettore
##orld
Grecia
finita
femminile
traccia
diverti
colleghi
legislazione
##esercito
sposa
##fra
partenza
prof
cattura
00
incora
##Se
mira
memoria
altra
guardare
ere
000
falli
##IG
##Per
sinda
##esimo
presentare
dolore
proi
##pore
##aff
##â€.
Informazioni
moto
medie
provare
inizio
visitatori
stavo
segno
potenza
campi
consumo
##79
dele
finanziaria
tutela
sarebbero
gol
criteri
##bbio
##OG
farmi
##arri
attuale
politici
##ggiata
confi
##metto
realizzare
5,
1999
##zzino
giusta
ridu
##SE
notizia
##ance
Sol
##72
quartiere
Serie
certa
Nessun
##terie
Conte
Giuse
speri
pagare
panora
##fr
colazione
##lterra
vuo
##cchie
maggioranza
bro
dolce
##mis
compro
##ves
##rne
Quanti
potrÃ 
credito
##-201
satelli
finanziari
commercia
lingue
semi
piane
preoccup
##roni
culturale
conclu
conti
pran
quarto
##mino
rimanere
premio
##rli
##bal
##logica
##male
##76
##come
negozio
##nella
nuovamente
##ffe
ufficio
metro
##CH
danno
##zioso
dose
Mostra
traffico
modu
notizie
Bur
perdita
Min
prigione
##venire
libri
castello
appartamenti
##ony
Pal
##ub
##gallo
ringrazia
##ons
2019
Bor
##unt
##ux
appa
Pra
miglioramento
ammi
Totale
##nali
gamma
Giappone
vet
Museo
mancanza
##importanza
##ller
restitu
Ki
compagni
Italiano
##guardo
300
##ctor
##ensa
lettere
##gliata
2003
soluzioni
tecnico
arrivato
vogliamo
Alle
##immagine
Bibbia
tasso
Paul
partecipare
intelli
##46
enti
Giuseppe
doppio
##erato
##scal
##enziali
ovvero
salva
##cÃ²
##tena
##DE
modifiche
straordina
chilometri
##Â»,
Cin
doveva
##cate
minuto
##mando
valuta
vittime
moni
##ars
XX
##way
risolvere
turno
pietra
##utato
â€˜
##Ag
centi
cento
##enica
occorre
assolutamente
##uga
##ssemblea
dialogo
##38
vostre
##berg
##ddio
condanna
##arco
unica
Ko
##qua
##simo
bic
SE
Para
##liam
Siete
CEE
respi
Russia
Apri
##cel
Bon
pezzo
porti
speranza
##teranno
##orme
aggi
##chiamo
piazza
operatori
##andosi
avrÃ 
sottop
necessari
impianti
##lava
dimensione
arres
essendo
assieme
EC
##sili
fri
##ggeri
ufficiali
aperta
""
Potrebbe
liqui
analisi
scoper
Stre
offrire
rispar
##ple
costituisce
##vante
##lizzato
On
effici
##tanea
##ther
Lou
fonte
##utilizzo
pubblicazione
Entra
aumentare
##cerdo
este
pistola
sel
##7/
iniziare
partito
IL
Contro
Unite
##analisi
acciaio
##.)
##vers
verifica
##5)
39
alberghi
miliardi
Goo
esse
##erebbe
Gruppo
singoli
appo
##ington
Cons
Paese
date
nomi
##ms
##intero
scala
carte
Marco
##IONE
danni
sostenere
##gro
##uli
faro
popolare
##ghilterra
dovresti
economiche
tren
Cara
estremamente
principe
pranzo
Trattato
chiunque
##teca
fasc
##2)
##BI
vedi
##illo
diplo
leggi
##ccessi
idro
##egli
idee
contribu
James
##tile
aprire
UE
##var
vinci
dibattito
clin
siti
##volmente
##gnano
Spero
fantastico
##cesi
Volevo
cookie
temperatura
barca
Ricerca
Senza
segreto
leader
##duti
ristruttura
Infatti
squadre
capitano
orientale
scompar
conver
splendi
statunitense
illustra
contenuti
##Pro
##pria
avessi
Za
Soci
riuni
Giochi
indis
gravi
##ICA
infor
concl
##pica
garanzia
Prezzo
bere
richieste
pul
##enne
scapp
##edificio
voli
##-5
Maggio
##pero
gratuito
##tichetta
##trutture
Coppa
merda
Altre
Ado
fidanza
vantaggi
meravigli
prioritÃ 
mona
##miche
lunghezza
clima
##uol
01
grosso
##erre
##ssica
##.3
venuta
elezioni
influenza
chiuso
fonti
kg
spiace
IT
dedicato
##istruzione
##pie
capitolo
Semp
##IF
##sero
##vile
spedizione
##arg
##hanno
##ball
latte
soddisfa
corrente
##-4
distur
##mbia
industriali
##estate
##").
##viti
finire
Svizzera
Ori
ria
##lusioni
Giusto
cur
macchine
##gate
farÃ 
campione
occup
beh
##viamo
Ann
Cosi
##dows
sig
abbiano
ciascuno
rifu
palazzo
Raga
assistenza
Sho
##cal
##Pa
manu
progetta
Emi
Lib
risa
##imento
Camera
##fron
centri
##seguito
##200
feste
canti
George
cosidd
viva
##gendo
Qua
fia
##troduzione
dimenticato
contea
##--------
##vest
##No
##mentale
Alberghi
Sy
##8)
##RE
##alleria
destinati
corsa
controlli
ricevere
##mber
scambi
agenti
preventi
Data
Buona
##venuto
##prese
##dete
uccider
##ersi
##damenti
William
Deve
##ander
lago
##ilm
Primo
beneficia
zucch
##bole
##SS
Club
##UT
##ditori
##â€,
alloggi
##resta
chiaramente
specifici
versa
##gnori
##lanti
tornato
regionali
ambientale
rappresentanti
##umere
##erare
Angel
riguardanti
restare
comunitarie
rapidamente
colpo
##forte
diventato
avrebbero
conseguenze
##ces
fenom
artisti
proteggere
tour
inna
##Hotel
mura
veicoli
##zialmente
bambina
##IZ
caffÃ¨
â€™
Pronto
##eratore
Cir
riconoscimento
facili
Tour
##detta
congi
##24
sorve
##'8
##ssand
##mali
preghi
Portogallo
opportunitÃ 
finchÃ©
##pla
sforzi
intenzione
visione
##pressione
recupera
sacri
titoli
tizio
scrivere
conformitÃ 
##denze
##cchetto
costruito
specifico
Pensi
trattati
Bassi
decen
crimina
biglietto
##turi
75
finalmente
##cque
##iego
scusi
oper
##inante
##cido
Lan
##equi
Revisione
succedendo
Palazzo
limiti
Nonostante
doccia
Google
##erazione
tavolo
interventi
Acqu
##zionare
requisiti
##ttica
basi
##cussioni
trasfer
umi
cambiamenti
##onata
##offerta
nominato
##mpe
decide
salvare
Rego
sicuramente
anzia
bas
##landia
responsabili
Commissario
Web
##65
CH
imm
cristiani
$
Her
Comunque
notevole
ampia
##OC
pensavo
cambiamento
fronti
filoso
##-3
partite
sacerdo
aspettare
##ade
richia
##/1
potrei
previste
esistenti
esperti
putta
##dge
dormire
##letta
afferma
pena
##PP
prevista
vetro
biglietti
Chie
competenze
Tipo
##lice
utilizzando
##gegn
conclusione
interessati
forti
##ormente
News
sufficiente
recensioni
##visa
lettura
vantaggio
ponte
combattere
##tola
marchio
ille
pratiche
##erche
##messe
Aggiungi
##cial
consegna
zi
##esia
felici
##ssino
Mu
##inti
vacanze
ciclo
##remo
##ditore
sinte
basato
tante
aereo
scarica
##22
ampio
ghia
##ori
##71
##pertura
stabilisce
connessione
City
giocatori
appunta
cane
##abbiamo
adottare
yo
volete
giapponese
##.2.
vieni
##vimenti
circolazione
Canada
##onimo
internet
6,
##terali
sviluppare
##onda
decidere
Foto
entrambe
aggiungere
fed
##cie
..
costruire
team
rivesti
esame
Fili
##menta
CESE
Torna
And
Windows
richiede
chiamare
##occasione
##nel
##istico
##urato
vittima
##elenco
nascita
Sci
ultime
interessante
presentata
##AG
##ufficio
##ttivi
concernente
registrazione
partecipanti
sbagliato
##interesse
spalle
##tativi
rifiuti
vege
dica
Mich
pad
Stiamo
##inizia
condizionata
voto
arrabbia
sino
Magari
Indi
preparazione
##7)
merid
##gnamento
dispositivo
protocollo
##grafico
piatta
##logie
bisogna
ministro
Princi
limite
scuole
##81
##6/
profilo
suon
##ald
amma
telefon
brano
##melo
##ssibilitÃ 
resistenza
Joe
sposta
##cellona
varietÃ 
paziente
personaggio
##glish
Infine
##ciare
##ttempo
poteri
polizio
nato
##sitÃ 
sarei
Lis
dubbio
dichiarato
opportuno
ordini
arrivo
lasci
SP
PuÃ²
sogno
bellezza
##OD
##scritto
Zo
vicin
impegno
lavorato
conformemente
##ttorno
Ancora
faceva
esplo
magari
Max
##tria
produttore
ricordare
##mentato
dottor
Slo
quota
resti
presentazione
92
Ã©
##nno
privata
UN
accol
strade
Air
collegamento
##isca
Antonio
Dan
arma
offerta
spettacolo
##ustralia
##uori
occidentale
##74
Ricor
My
fla
##-200
custo
Belgio
##.12.
Barcellona
##autoritÃ 
motori
assicurare
##esercizio
##bio
sport
##95
bol
frattempo
deten
##cenze
##TER
##uogo
disciplina
numeri
##teriormente
##gelo
ottimo
registrato
##esame
ricord
selezione
##inione
consegui
##ds
##tentri
conosco
tradizionale
trasferimento
qualifica
interni
##derci
rea
proposto
Natura
##monian
adulti
World
##glione
##onale
##ffo
##Com
Mari
contemporanea
emendamenti
rimo
intervento
monito
critica
dirig
USA
tedesca
##talitÃ 
##cero
debu
privati
suggeri
scene
cambiato
Br
##dosso
parcheggio
##.1.
infras
##ccati
rub
##arra
6.
suddi
termina
normativa
concetto
rimasto
##andante
##9/
ara
fate
piante
strutturali
annuale
ragioni
manca
##nitÃ 
##zionalitÃ 
##librio
##usura
##bby
##aeroporto
est
archi
VI
##attenzione
##mu
permanente
##ichia
##eta
##intervento
##arli
evidente
##gger
Fondo
voti
1998
effettuare
Tele
##78
tratto
7,
##ettando
##erano
##riamente
cinema
##demia
##pon
pubbliche
essenziale
Star
turistica
##bil
##ENTO
##33
Mike
vice
indicato
coltiva
costituito
Los
1997
##insta
Saint
##meric
trasmissione
porte
##inci
##umin
prenotazione
vicini
lava
partecipato
Dice
Scri
superiori
##terne
alti
dicono
perchÃ¨
personaggi
##ford
appli
Esatto
##21
attivo
Sic
francesi
protagonista
##esc
comunitari
spazi
celeb
Mis
##rietÃ 
legale
rivista
Quel
##lizzata
Sotto
##Imp
Mona
##mes
edu
spagnolo
permettere
##bel
coordinamento
34
Mac
##EA
##Pre
za
Figlio
danne
Vado
tratti
ritardo
sviluppato
secondi
iscri
Dra
mille
teatro
##Lo
silen
corsi
riuscito
ovviamente
pilota
accettare
vigi
Consi
peccato
af
Prodotti
by
tentativo
Pur
##estensione
Confer
##LI
riscal
buone
pio
vincere
Sant
Caro
treni
##book
stimo
##mante
agente
fattori
##UM
dirlo
eventuali
modificare
bravo
iniziale
##gliamo
##EM
Sarebbe
##64
alimentare
italiani
minore
150
acquisi
dirmi
##tton
ricorso
tecnici
Van
collezione
##mbri
##usta
indu
PC
##.10
fianco
Blu
vada
##omia
destinazione
priva
recenti
##pole
##logici
debole
##esistenza
testimonian
##ziamenti
##Is
potente
vini
##gori
dover
acquistare
##nis
alimentari
vuol
consiste
##diali
attorno
applicazioni
1996
##ttamento
##adozione
conferenza
orto
Sil
giudice
##talmente
plu
bassa
potenziale
##tivitÃ 
richiesto
successiva
laboratorio
##notte
verita
cru
##DI
depu
9,
militari
Ulti
##autore
parro
paesa
##verÃ 
##ostro
chiamo
offri
##iniziativa
elemento
impossibile
fretta
spiega
laure
##grafie
##inÃ²
montagna
famoso
##ttedra
##cord
pensando
##tia
Thom
farsi
Modi
##tili
percentuale
spaven
##stre
accanto
Essa
Dar
saputo
intito
##mÃ²
tan
Tosc
##lette
ran
189
negoziati
Israele
taluni
sensa
Ray
##nare
post
pianeta
esclusivamente
innamo
giocatore
esperienze
firma
preval
debba
##Si
Prog
sospen
resp
Robert
secoli
##vanta
stabilire
Park
attraversa
licen
importazioni
Sele
cari
##denzia
ricerche
sostenibile
truppe
##alti
##lanza
veniva
cinese
divisione
##mettila
##any
##endario
##Do
faremo
##ingresso
farÃ²
accogli
dista
##ascia
comportamento
cosci
capace
processi
##62
spo
##rle
sugger
Direttiva
bom
Valle
chiedo
##mann
y
pensiero
compreso
sappia
differenti
##pt
Servizio
servono
##fero
##?"
##tective
##stituto
##inten
turisti
##unzione
psico
##cini
Gard
##preso
##ionamento
convenzione
agricola
##bie
Mai
approfon
seria
##latore
Quale
Fla
##troppo
##gar
Mark
batte
guardia
teoria
##cli
##organ
compati
vescovo
cora
SU
##fficienza
asci
##yer
Mary
conferma
##dore
coni
realta
pagine
pronta
##gnate
Fino
##inc
Tali
significato
ripet
Oddio
ricom
##introduzione
allon
##ish
dedicata
##ak
##assa
Pass
temi
categorie
##-199
ogn
##0.000
perse
accor
##dute
##cic
desiderio
tiene
rinno
puttana
violenza
voci
inven
##13
##zionati
caldo
cinemato
##ionati
occu
##mosfera
percor
##dom
##esca
consigli
##iness
##4)
Festival
modificato
uscita
##opport
notifica
copri
##rini
##Co
Cazzo
soldati
organismi
##ji
##sche
chieder
pressi
##-9
##ville
soggetto
positivo
Centra
posizioni
##gitto
Boll
dando
##ond
Henry
Alessand
##ssibili
sequ
tenuta
indirizzo
stri
##tudine
evento
##mbro
papÃ 
Ani
maga
contribuire
##logna
##origine
##Ne
Molti
approccio
edificio
##fort
Torino
Toscana
avendo
Vuole
gentile
##agricoltura
successivi
Siste
copia
Quest
segnale
materie
corto
Cali
##uscita
Dalla
rigi
Registra
Banca
##vide
prigioni
incontri
istituisce
giÃ¹
##ttima
Ana
benessere
##zzon
rimb
dipende
##han
##cili
saperlo
serata
##ence
diffusione
rispettivamente
##llazione
Ken
Far
cancella
Atten
Situ
consentire
esterno
Svezia
Jean
##Tu
##ZA
coer
pronuncia
Nazioni
solida
##ziali
Credi
##nata
visitare
CittÃ 
chiese
annunci
utilizzata
##........
braccio
Eh
esemp
propor
##orrere
presi
Leggi
##eva
poche
Berlino
petro
trasformazione
##metter
pesce
##rola
prosegui
Agriturismo
##tatore
Bul
##sen
##state
extra
incidente
formu
aus
##udo
##Ã³n
federale
##wood
finestra
##ortati
85
peri
Pan
svolto
giustifica
esistono
dispositivi
##torni
recipro
Sen
Stavo
##entrata
pianta
Bos
definire
avviene
lumin
Detta
socio
isole
music
##ira
sorpresa
riba
monu
cervello
India
Leon
Nuova
##diterraneo
espresso
perciÃ²
finanziarie
##83
settentri
familiare
Quali
##derazione
animale
giuridica
1994
##ction
##bar
##rdo
Tel
##cus
Face
gare
English
evidenzia
##Li
##cela
##ssuti
Risto
##SI
##novazione
##biti
##fast
cantante
##istan
##fano
culturali
DELLE
mori
denuncia
desideri
consta
composta
##tio
##xy
signorina
##busti
##arrivo
vite
cere
elevato
Nuovo
Sua
accade
##ialmente
valle
irre
iniziÃ²
inno
sarai
##ARE
##gs
amica
##geno
##mobili
##inda
meridionale
inqu
##get
dimostrato
presidenza
##grafiche
maritti
malattie
Continua
terapia
8,
##69
generalmente
attuali
##diche
attacco
##tern
cresci
pas
##marca
Anna
elen
droga
Fri
##aspetto
fro
PoichÃ©
##mila
sente
##asse
storica
conflitto
elettrica
##OV
##tomi
Gian
fuggi
Turchia
competenza
Lea
Sulla
agricoli
illu
disoccupazione
##vor
rece
romanzo
##archite
pronti
obbligato
Relazione
##rur
esterni
pomeri
consoli
familiari
Scarica
avvocato
cavallo
inizialmente
arrivando
trovi
banche
##oli
##babilmente
scritta
Prodotto
stabilito
Prendi
Micro
33
##elet
##18
farai
accessori
attiva
voler
##blioteca
inva
ascolta
appari
fili
rinuncia
Martin
legi
1995
veicolo
fornisce
automatica
##esecuzione
Pas
We
recante
restri
prepara
Charles
##!"
circ
sorg
##4/
canale
##eggio
##orsi
capol
400
sessione
Cioe
ap
organizzato
colpito
palla
risposte
star
canzoni
##urata
##zer
##ssemburgo
conge
CD
##appartamento
ES
piaci
Richard
##pito
##acquisto
governi
##impatto
Irlanda
##impe
nom
##55
freddo
##leggio
##rita
Hel
Andro
##ttobre
sostan
applicare
##king
##grado
Metti
errori
##apertura
Den
tonnella
minori
##anitÃ 
determinare
(200
rovina
##02
##cker
tracce
uscito
copertura
##truzioni
##vra
Aff
doganale
zucchero
##ccellente
deriva
compresi
bor
ossia
spirituale
decre
rafforzare
##toni
Ren
House
personalizza
##istituzione
##osizioni
Jane
##pina
lavorando
potranno
Attu
emissioni
svolgere
affida
Esso
fisica
Roy
ECU
ber
medesi
appropria
Ph
Dimmi
##incontro
der
Â°
gene
verranno
##ship
Champ
medicinali
Luigi
gestire
##metro
approvato
discorso
testimoni
luci
dotato
appuntamento
You
##fezione
Isa
##toria
perfettamente
composizione
frutta
braccia
##ost
vecchi
##burg
compensa
destinato
fame
metropoli
individ
superare
flo
tariffa
imparare
##inea
stabilitÃ 
##sion
pelli
##ruzione
##1/
Let
procura
revisione
potremmo
fara
solamente
generazione
##versario
Sempre
##loni
##jo
Gri
##pper
scheda
Tren
##rra
facente
episodi
sanno
##integrazione
preghiera
Wa
##ciato
##tualmente
presentano
##cha
ehi
Visi
Matt
pubblicitÃ 
##mmy
fondata
perce
caro
Santi
gusto
vento
sfida
ST
##cchiata
##scono
motiva
##ban
buoni
##pio
seno
allar
situazioni
##gici
lasc
##...]
##logio
Brasile
##burgo
ovest
Africa
Teso
Pubblica
americano
ambientali
moderna
Luca
##rittura
Os
decise
ultima
##ongono
svolta
##ansione
conclusioni
Essi
navigazione
museo
discri
Sici
##73
1992
olio
schermo
spesa
PMI
anticipo
sparato
tabella
foresta
Piazza
West
Nico
##letter
Lussemburgo
##geni
##icia
DELLA
##0)
facol
##Mi
riparti
55
semina
inser
possie
##-6
capitali
##uiti
previsti
aggre
attrezza
prendi
Buongiorno
##vamento
Jos
punta
fornito
relativamente
obblighi
##titudine
Vir
##destra
inver
residenti
considerata
metti
soddisfare
St
Proposta
rit
momenti
stranieri
Parte
incarica
Tieni
valutare
##bona
direttive
eliminare
##dÃ²
##rizzazione
##arca
tessuto
##alli
##chino
fina
religione
##mendo
nutri
semplici
##gando
bianca
##angelo
Pertanto
SarÃ 
dipendenti
interamente
Art
tris
tiro
ulteriormente
##iti
popolari
immer
svolge
confine
meda
7.
denti
titolare
##ENTE
larga
##ht
##let
vicina
##aller
##ticamente
##wser
pensione
##effetto
trasparen
lusso
conquis
##core
##AD
enorme
##IP
domenica
trovere
##sson
##inqu
##versale
65
Colo
avrai
tradizionali
Scopri
##ettori
##44
vul
contatti
##bli
Salva
finche
Generale
prec
morÃ¬
piacerebbe
Polonia
##sole
Mod
affatto
##identi
scoperta
salve
Tesoro
Rice
##vidi
Probabilmente
##ye
##contra
specialmente
simbolo
rosa
disegno
rappresentano
vestiti
viaggi
##ppie
##donna
##unici
ciascuna
ml
digitale
ricco
Codice
##ulo
##viste
##uite
##importazione
EN
certamente
continui
esti
interessato
dev
##/10
antichi
coi
1993
##evoluzione
Spirito
('
compresa
cassa
State
##ALI
##zzetta
##lun
Fami
##ensore
##cciaio
incluso
produrre
colora
pista
##fferte
infrastrutture
giocato
procedere
matrimon
##17
##geli
potresti
taglia
ministri
Alloggio
##inario
##golare
usando
##dali
indic
##tani
immobiliare
sepol
chiusura
Danimarca
Appartamento
duro
##De
dirti
##enz
vicinanze
cellulare
gioia
sostanza
vuoto
organizzazione
preferiti
##tagna
proprietario
giudizio
##adesione
##ness
consen
armoni
diretti
Condi
##manti
##zionamento
ovunque
Nick
ab
viaggia
(199
Ry
patrimonio
##dal
preventivo
##obbli
imposta
selva
addirittura
##load
##venuti
indispensa
torre
QuantitÃ 
Whi
##assistenza
rimase
traduzione
42
pomeriggio
Successi
##mori
nemico
insu
definito
##ositÃ 
altresÃ¬
applicabile
##arle
antico
prendendo
reazione
preoccuparti
spon
##bon
esterna
storie
polvere
descrizione
##orn
Visualizza
relatore
ricche
regolare
##arch
adegu
regalo
Ze
configu
##omet
Edi
naturalmente
##sante
##icato
potesse
##igu
Bus
##ORE
AN
soffer
qualora
##vente
assor
##ITÃ€
##artiene
Black
##gratu
arte
comprare
sebbene
suono
##'11
##68
##lor
uguale
##rena
versioni
avresti
##gnazione
greco
Marina
Messico
area
##ason
lati
farci
collegamenti
Contatta
licenzia
competente
##ls
nasce
Suo
Wow
fascia
##atta
botti
competenti
recupero
conquista
Ara
analizza
##urope
##sma
##samente
legger
privile
Partito
Avanti
##occhio
dominio
volto
avevi
pregi
pubblicata
Iscri
Bella
1990
Ì
Premio
Rai
utilizzo
XI
##tice
##uova
sorpren
premi
tela
##gazioni
##tÃ©
##dotte
##ille
th
Bologna
prestito
##pino
Comune
accedere
occa
##antica
contratti
calda
dovranno
effettivamente
aposto
Geno
dintorni
Han
allen
##dicazione
##ggiate
##como
Mr
assunto
confronto
costituiscono
Crede
##brei
Regolamento
Aveva
##nello
##cht
48
Ottimo
##innovazione
##ude
Convenzione
negozi
Ros
stupido
##work
riceve
##gone
##FR
10,
ritra
##aumento
turismo
passeggeri
Red
##lizia
vasta
tranquilla
risal
troviamo
nucleare
ospedale
browser
moderno
##ashington
seduta
##indirizzo
cavolo
continuo
age
muro
segni
avver
condotta
quegli
##ssici
praticamente
Australia
persino
zio
Parla
verificare
Unione
tradu
associazione
##NO
##cho
equipa
benissimo
candidati
##cciono
augu
##05
tenta
Conc
spero
Avevo
##fornia
##toriale
sessuale
##29
AG
considerare
circostanze
basata
##%.
Francis
Bill
impegni
rinnova
ine
Tec
##goro
##cello
##disce
Media
conservazione
##mene
##pato
raffigu
##unione
apre
Offerte
rurale
ricca
##terale
possesso
##ugh
##ziosa
sorta
frequenza
compiti
determinato
Pers
cra
ster
disabili
record
##gas
consultazione
Ov
fasi
##tle
Aeroporto
borsa
pru
terribile
tessi
minima
scientifica
settentrionale
Torre
##ttedrale
Charlie
##risto
ipo
##zzina
opzioni
Cristi
Trib
letti
ufficialmente
signori
aerei
##importo
ger
taglio
Viene
potrai
femmine
##ccademia
ottiene
Ty
stella
##Di
##stein
maschile
andar
certi
##mula
licenza
##iezione
Patri
complica
Parco
##mora
intelligente
##48
sorveglianza
Discussioni
##diota
coesione
scarpe
intensi
##alizzazione
AT
Fanta
95
occupazione
##logiche
##teremo
inclusi
Shi
esplora
escl
King
eser
baga
GUL
##naia
##usale
piatto
##allen
##gus
##nei
##quo
Sette
moderni
##sk
##ficata
sostituito
riconosciuto
Glo
differenze
Champion
autore
##rista
combatti
password
##effica
tonnellate
trasfor
##wnload
bandi
scola
##66
Ab
Piano
##rand
##gene
punte
##zando
##potesi
incontrato
virus
comandante
##degna
pienamente
##inata
Pote
raggiunge
Fare
catena
interessate
Cle
Studi
caduta
nazioni
notare
cambi
Spedizione
ampli
nemici
League
##erata
diocesi
consenso
War
##ttuale
##port
adottate
##23
battuto
eccessi
Thomas
Washington
##infer
Provin
sforzo
frutto
pale
Romania
##ring
legati
Compa
sapete
santi
accettato
AttivitÃ 
##augu
185
##pic
concentrazione
##.00
cellule
##gion
include
Dev
##Africa
##Ufficio
tenendo
##peri
[...]
risparmia
â€,
1988
intero
prescri
Costa
vivono
prospettiva
santo
inti
##cene
costruita
##agente
##terÃ²
giudica
zo
##associazione
##anny
iniziativa
visite
##marsi
ciascun
arrivati
istruzione
##zzÃ²
##estero
molta
sapeva
##Po
Chris
##ku
1985
talune
Disponibile
Castel
Facciamo
tedeschi
##anima
##":
realizzati
Â©
attuazione
Street
immagine
amiche
##lesc
fatte
ambito
realizzata
Rin
gus
##mbascia
##Ro
Internazionale
commenti
Angeles
combinazione
##uth
concessione
##IVA
cera
altrimenti
##BB
usata
chiara
audio
Design
asc
1987
##RI
##chestra
terrazza
##ara
sentenza
tavola
Cala
##insieme
messaggi
PerchÃ¨
1989
vorre
inserito
tira
entrato
##cheo
##pisodio
alberi
##utente
democrazia
capoluogo
entrata
abitu
##26
Eri
contributi
Dic
##vuto
##43
Ces
studente
ulteriore
sembrano
##grafi
meccanismo
debito
##ospedale
##til
##lui
sconfitta
##Bo
eravamo
##urro
##the
averlo
ridotto
coscienza
deposito
1Â°
regina
Amm
fenomeno
##hop
medi
scienza
bellissima
inde
##dremo
##erta
introdu
riferisce
Arti
dramma
apertura
stronza
converti
piacciono
Zi
indiri
nazione
Record
##diso
tagli
ristoranti
congre
Ragazzi
pane
##rÃ©
sm
Pis
periodi
reddito
##verna
##resti
concerne
omicidio
##mic
##erve
tempio
##'"
1986
pesante
metalli
maglia
##fetto
##%)
offrono
##lizzati
##MP
combusti
Jer
incom
piatti
##guardia
storici
elenco
Video
cada
##usalemme
##.5
##ISS
automobili
corretta
primavera
##letto
vince
conoscer
amministrativa
##impegno
chiusa
tornata
onorevoli
diam
attesa
##41
esercita
monte
pover
americani
##gri
legato
##tava
nera
Sicilia
diede
Ministro
puni
##gola
Dettagli
ceri
##ssaggio
##amministrazione
addosso
costretto
operativo
Ono
vestito
professionali
Dip
modificata
orale
elettro
stretto
dettaglio
##ingle
##ortazioni
##erdÃ¬
Nove
Sce
##ennale
inuti
regista
sorge
##ervi
##occhiata
salvato
##VD
##minati
dovete
spre
coraggio
tea
fiscale
rib
registrati
##tele
impatto
rapida
##luenza
Dammi
IP
tappe
Daniel
classificazione
Bian
##2/
Jose
rilass
manutenzione
colonna
farmaco
frequen
##Agenzia
Universi
riuscÃ¬
Posizione
piattaforma
persegui
Austria
Bed
38
ringrazio
##opportunitÃ 
inaugu
Louis
movimenti
##evento
Bern
##culo
##eek
##venza
associazioni
Insomma
agire
##alta
concerto
costu
orientamenti
##arvi
colp
##orgio
##reak
##ccata
Segre
implica
##amp
##rocco
##edizione
Gerusalemme
pertin
interessanti
Jih
cause
pacchetto
firmato
SocietÃ 
chitar
mostrato
##impiego
vene
server
vengano
andati
bron
passione
##stero
von
rapido
##SA
riunioni
tette
chirur
AD
Cra
##lon
Ama
provvedimenti
medici
##28
sar
ambienti
Sardegna
##dier
show
razza
##glielo
Catego
professore
mand
====
##ding
conoscenze
ottimi
EUROP
ecu
Pie
##ingere
##sey
37
Jon
accel
portati
##ATI
Contatti
rischia
##tusia
osservazioni
Fammi
televisione
canto
##obbligo
contatta
##liano
aiutarti
dichiara
improv
rivela
##istono
matura
##lto
180
lunghi
1991
domesti
Profe
giallo
PAR
applicabili
tene
ognuno
chiedendo
competitivitÃ 
##ski
preli
stadio
fuga
raccogliere
stamp
##sola
preparare
Android
dodici
compleanno
cittadino
Camere
tassi
fisico
possibilita
originari
esecuzione
alza
##low
Alcune
Corpo
ino
deposi
civili
##fin
crista
##voca
residenza
ballo
##cine
Invece
Ristorante
centinaia
crescente
##artista
Guida
Nome
Carrello
latino
consapevole
angolo
##rest
Carta
potrete
##inca
pazzo
offerto
##gliate
Madri
testimonianza
tetto
##ey
caratterizzata
centrali
Mediterraneo
irri
frazione
Fondazione
comprendere
esserci
prevenzione
##onati
Vincen
Mur
##TM
ferma
antica
##vedere
Jihlava
##erali
scappare
##ciano
Sala
(5
condotto
probabile
odia
##ros
##mocra
curi
##tonia
Christi
Eventi
Successivamente
Fun
##gheria
calore
Jan
classico
moneta
gon
sedi
ingegn
parten
(2)
anzi
sudd
Bamb
crimine
appassion
piacevole
Dovresti
##chel
elevata
##wan
Madonna
incor
capisci
tennis
profondo
cavo
qualcun
##ceo
Ron
Iscriviti
studiare
recentemente
ubria
DELL
inviato
##ganti
anziani
pagato
uffici
fattore
Cam
rappresentante
##monte
Capisco
precedenza
sguardo
Gazzetta
sabato
riven
Rosa
##ressione
incro
silenzio
ved
accus
##comunica
##minata
Pala
avverti
carni
Lomb
inclusa
Merda
assic
##esterno
parete
tendenza
dovuta
italiane
carro
Medio
adatto
##Me
costrin
rav
assumere
detective
ono
affasc
Libro
organizzare
porre
veter
vivi
Lisbona
nata
impren
##scar
sotti
vederti
socc
dimostrare
##urt
Les
favorevole
##FF
##DO
Lee
comma
destino
##rino
##detti
##now
elettronica
verific
slo
paritÃ 
##ssu
segreti
popoli
##mentali
sintomi
preferito
Teatro
prose
Bil
sensazione
birra
##malmente
##Assemblea
##ns
famosa
guari
progettazione
Mondo
rubato
onde
ACP
##47
##vision
mobile
competizione
(1)
##abb
##camera
recuperare
van
romana
limitata
definis
artigia
##arl
##mond
mole
marina
reca
Madrid
##erri
divor
##try
##gliano
Aiuto
gioi
##fono
##Ch
limitato
##kin
resa
Nello
##bol
##OLO
britannico
Stru
somministra
brava
She
cominciare
##field
##iante
nascosto
##laborazione
##erei
gradu
Giorgio
igno
maestro
Open
##dda
inviare
##trale
##ull
##terebbe
##vine
Ferra
pericoloso
okay
vendere
##27
singola
Mario
attrezzature
##dermi
scia
##well
universi
guar
##stato
visti
riuscire
sorri
maggiormente
concluso
immobiliari
##fondo
personalitÃ 
intelle
supplementari
sentimenti
convinto
##esima
Monaco
##zionario
suolo
DA
##rona
meteo
esterne
cristiana
costituita
ascoltare
##derlo
cominciato
120
Regione
effettuato
modulo
ferroviaria
risponde
magne
##rÃ¬
sfide
appartiene
Condizioni
carbon
##So
Basi
vendite
indicazioni
##IR
neu
fondato
largo
##cante
Bretagna
California
chiare
pasto
scatola
sostiene
matrimoniale
sfu
totalmente
provviso
Mare
produce
##)*
cass
diagn
chiami
1984
##COM
elegante
cattolica
Grand
discutere
utilizzate
esseri
ostacoli
salv
##dette
arrivata
49
##celli
wi
##arsa
trasparenza
Sun
Feder
Rapp
prendo
caratteristica
evol
Sia
nipote
##fu
besti
International
##61
india
##Sa
scrive
attacchi
##gliamento
benefici
##ursioni
triste
Qualcosa
##angolo
##App
diventando
##";
sposato
##mpere
essenziali
posteriore
XVI
esprimere
cani
##iner
metallo
(3
creati
FA
rispettare
andate
riconoscere
##bero
##Istituto
Sig
##ket
Sport
nerv
manuale
Potrei
Trova
chiamar
plastica
ossi
##vy
compagnie
##nica
##emen
##andi
funzionalitÃ 
##giche
]
aro
comin
##lesia
##ttuto
Lun
2:
alte
mate
imper
disposto
adottata
giudizia
Blo
Accesso
eccezione
arro
PerciÃ²
riguardano
Castello
pagamenti
AR
rivolta
statistiche
Adam
comfort
Mel
##LL
##rl
manifestazione
##ttanto
rock
disputa
##arne
televisiva
nonna
Note
##coni
##pristi
sapre
COMUN
##uca
appren
legame
tun
##interpre
##ah
##glo
favorire
deputati
Genova
##torio
orizzon
Deut
Op
Off
invita
piede
Prenota
elettrico
incontrare
dott
##nio
usati
lasciando
##-11
##mith
Comunica
##arente
incen
##altezza
equival
interne
costre
austria
Attualmente
bon
##atmosfera
finora
autobus
discre
vissuto
originali
1983
##win
seguendo
##DA
8.
finali
profonda
fortemente
Ita
lezione
incredibile
guai
sfruttare
presentati
Ly
servire
istruzioni
##Su
##iana
linguaggio
considerati
effettuati
aiutato
##aut
ripresa
##bor
##ziosi
1:
##ffitto
##idi
bianchi
brutto
##ICO
sensibili
bos
prossimi
magia
ghiaccio
saremo
bril
##udica
05
Dub
riuscita
metropolitana
Piu
testimonia
insegna
assegnato
Jen
GR
Jim
diventata
##riti
Andrea
banda
accre
lavorazione
##sserva
##ssati
rifiuta
Smettila
salvo
email
##ssina
cammino
Recensioni
morale
Ospi
Franco
identifica
##ggiando
Inghilterra
gambe
americana
##gliati
affermato
virtÃ¹
venendo
Racc
##installazione
##right
romano
##azia
Film
conversa
Flo
luna
Rock
umane
esercizio
Scott
quotidiano
Ministero
Award
neo
energetica
cilin
Presidenza
magazzino
medicina
##ranei
##vania
##moto
##ulso
contare
confini
schifo
Bas
scopre
trovata
somma
portando
PapÃ 
Fel
QU
rilievo
condividere
##ghese
##ett
Facebook
ja
Sezione
organizzata
conosciuta
Loren
indagini
sembrava
##ors
##entro
##atte
rossa
##PS
venivano
Trans
##reakfast
artific
##istenti
##lizzare
novitÃ 
tribunale
censi
##mestre
altezza
promesso
rotta
##Ri
rumore
notato
liti
prestiti
eseguire
##tions
masch
fedeli
sconosci
prenotare
indicare
##lavo
##ampia
debb
dono
44
carino
##miamo
##mus
fila
Almeno
privacy
##BN
pann
Acce
tranquillo
##etichetta
stretta
sfo
Vienna
##umanitÃ 
rilascio
##torie
##cchetti
stagioni
guidare
##67
uccelli
scomparsa
poveri
##stia
riscaldamento
Alessandro
##deranno
Appartamenti
riprese
bellissimo
lunghe
Produ
amministrazione
patri
diceva
avviare
esclu
comanda
##utica
avvicin
esce
99
appartenente
ville
Sapete
##zano
mondiali
##logi
farebbe
corretto
##indagine
##ult
##opzione
brev
##esportazione
riguardante
omo
Vitto
##FOR
Anch
imparato
Asia
rimasta
portÃ²
annunciato
uova
racconta
ottenne
##Ba
##imposta
dero
##lam
sembrare
progresso
parrocchia
##razz
ricordato
##Ã¡n
##visioni
Treni
##dt
brani
##gale
preparato
poliziotto
250
individui
##uch
Male
scorsa
russo
##prima
Tony
##out
Resi
forno
##ttrice
Immagino
Conferenza
chiudere
quarta
10.
Scusate
Modificato
povertÃ 
ecci
dedic
##abi
decisi
risultano
marcia
rilevante
canali
scelte
##03
##Ã§a
misteri
rad
3:
facoltÃ 
##cidi
##kh
Scusami
onorevole
compagno
indipendenti
passando
aspettando
##lyn
scul
COMM
Company
conferi
convo
Ur
##bert
Comple
iscritto
flusso
DE
esempi
##bs
##ken
corrispondente
TR
cittadina
trovo
concesso
cinqu
##ceano
distruzione
crescere
##uel
PerÃ²
##kes
Guerra
Malta
Sche
Email
Lar
complessivo
ove
Tex
##pare
##air
giuridico
leggermente
residenziale
finanziamenti
venduto
Programma
naso
agri
Sand
dri
possiede
##omicidio
scienzia
--
radica
determin
pola
##ormi
##tine
##9)
##anne
##Ci
componente
##viazione
alimenti
##atori
##mble
##conto
difficili
##pping
##teriale
invitato
morbi
Walter
risposto
prospettive
precisione
##entri
grazia
##IE
procedimento
saresti
quin
##ATA
corro
scientifico
testimone
##ust
allum
Cinque
##etre
normali
palle
Cia
monitoraggio
ospita
avanzata
lingu
Tribunale
##ges
Dottore
mostrare
vide
costituzione
##94
dovere
CO
fornitura
Enrico
tipico
scrisse
600
Situato
##impianto
##LO
Resta
trono
magni
##red
lancio
Gior
##inazione
entrate
copie
professionisti
2000,
##En
##ab
gradi
##riche
1980
##inioni
inserire
comunicazioni
rappresentato
vorrebbe
divano
Cata
card
filosofia
autenti
Sistema
Muse
##AB
comunale
Bat
bassi
fram
##gionamento
Richi
##canti
spiegare
##ule
prete
Trenitalia
istituito
##Te
definitiva
##ttone
cappella
bicic
##veranno
Dimen
farmaci
##Vi
Ìˆ
##polo
programmazione
DNA
certificato
vasca
gay
##uita
fio
farla
patto
medica
frase
##side
##viare
spin
National
solidarietÃ 
aggiunta
quinto
##fru
calcolo
Liv
##tania
##ttoli
##attacco
ordinato
ges
corpi
commento
protegg
distrutto
Nessuna
flotta
Tru
fusione
ripristi
Bio
ciao
montagne
Rose
perdite
esemplari
dimenticare
godere
lenta
regolamenti
##ICH
passati
PRES
asia
##cile
istituti
##92
IVA
ministero
scrittore
##otball
blocco
##etwork
Abb
1.2
tranne
##ynch
netto
ravvic
fuma
##censione
avranno
Risp
entusia
##MS
Bran
esaminare
##63
stronzo
##critto
Madre
tensione
##bale
sviluppi
##bria
emi
controllato
DEI
talvolta
Fatto
Dovremmo
sogni
##Irlanda
1.3
##escovi
Trasp
Proce
priori
##estione
viaggiare
concorso
origini
##imperatore
##vieto
sospensione
ingre
CONS
messi
ebrei
coda
##riere
direi
##gentina
Chiama
frontiere
##terai
popolazioni
CAP
atle
velocemente
fermar
trenta
chiamate
Juli
##faccia
gigante
Sebbene
calco
ebra
avevamo
Regina
diffon
Sarah
Lago
alluminio
retti
lezioni
funzionare
##ggiati
##py
orgo
aeroporto
realmente
visualizzare
batteria
Atti
incinta
casino
carbone
##ddy
##cito
togli
Wes
comprese
preoccu
venuti
facciata
##stron
##autorizzazione
mobilitÃ 
razz
bis
rendono
##ciata
rispetta
Croazia
preci
Clar
pasti
Finlandia
milione
amministrative
Sor
confermato
riportato
racconto
tel
definitivamente
##PR
##inn
##efficacia
DVD
ritiro
spar
vacc
##04
##lay
imba
Sky
chiavi
Die
antiche
##entata
divi
visibile
##sterdam
ridotta
pubblicita
cuo
Vera
caratterizzato
determinati
##tativa
~
it
contenente
universale
##pale
##vedi
##gher
##llen
pubblicazioni
Capitano
cima
Gal
muta
olandese
censimento
gira
##fan
Dol
distruggere
spagnola
adesione
dovesse
decisamente
1000
medicinale
##endosi
indire
ingresso
dotata
##ticano
##dura
stanze
aerop
##ary
##argento
sufficienti
inglesi
match
Records
fotografia
##rd
##mattina
Gil
##camere
Opera
ami
gomma
bandiera
Sti
spada
Contea
diploma
##nice
certe
impianto
zione
totali
##vietica
Steve
anali
##lis
##istito
NT
CioÃ¨
Provincia
partenaria
derivanti
attivi
portale
Green
croce
Scu
##----------------
ammessi
bomba
occ
significativo
campioni
importi
##inati
##investi
tariffe
##ziano
9.
Aug
calo
vergo
eccellente
sindaco
Prote
tatua
##day
Free
profonditÃ 
##ratore
fissato
costitui
##terio
circuito
paesaggio
XIX
##run
##Ti
camion
nacque
Dam
quote
===
##yle
Valenti
Pin
cie
Biso
##-1.
Dall
adolesc
##filo
Italiana
12,
meccanismi
nonno
agricolo
##vegia
solare
##IZZ
giornale
##ttente
##euro
coinci
impedire
##ders
trasmesso
##-13
account
diss
letteratura
tocca
Barba
Ulteriori
ottenuti
funzionari
Nu
perde
link
quadri
Istan
imperia
diffuso
Macch
mostro
les
dona
##utore
Visto
Parola
##abbia
Accordo
##elaborazione
Occorre
monetaria
coinvolto
Onore
addestra
votazione
abbra
adi
##vice
raccomandazioni
##gnÃ²
Spo
comprato
##Inghilterra
##ltÃ 
gel
##forman
colpevole
reazioni
##parti
compiere
##91
##soli
##opinione
progettato
attori
##ttle
coopera
<
##bot
Tempo
Bet
##grammi
Bob
metal
asciuga
stanziamenti
43
Avrei
##erimento
terres
##FBI
22:
perifer
prestazione
##ermo
marca
albergo
sottolinea
parziale
medaglia
prega
##SP
odio
mettendo
##icurazione
temporanea
precedentemente
correttamente
danna
potevano
finisce
fornitori
##onima
presentate
sie
prevedere
squ
##gos
University
##rca
agricole
##zionalmente
FR
scadenza
Lau
bicchi
dipinto
destinate
impresa
Will
classica
##sivo
##presidente
comodo
##mbio
pareti
aperti
usi
##.10.
procla
##ereo
cogn
fum
ferito
##ENTI
collina
##tunato
Gabri
##ally
onda
cattivo
gem
Danny
bomb
Erano
smettere
##part
conforte
##lizzate
potevo
Pagamento
incenti
accen
41
Ovviamente
Check
Quattro
denominazione
##pendenza
sottolineato
trovava
##oggi
dolci
Breakfast
ISBN
insul
ricchi
##Mo
11.
risale
##dando
##back
Europea
esportazioni
chimica
Amministra
energetico
##%,
##mart
ditta
giuro
##mie
cicli
##ST
riforme
pavimento
violazione
##nti
sicuri
splendida
stabile
##ronte
automatico
pone
Sappiamo
monete
##Associazione
chiamati
esistente
##ted
parlamentare
regolarmente
##liamento
Qualche
pesci
Wander
scus
##miti
##India
Anti
Americ
integrazione
dichiarazioni
Fate
stupida
##Tra
Jimmy
correre
permettono
riconosce
sottolineare
101
concludere
munici
doganali
calendario
tende
documen
corrisponde
Potete
REG
Tuo
##landesi
##zionate
Rio
##viera
digni
##ottobre
contemp
accum
indispensabile
##voce
culto
tessuti
passÃ²
conduce
Amsterdam
rimar
##cciato
parlarne
##lievi
effettuata
Prego
Campo
##trico
acquista
##rescia
Liber
Sopra
##pres
epoca
fermo
alloggio
##pet
##59
Sos
determinazione
avremo
cavi
##tha
##influenza
##inger
tab
assai
radia
##dori
quaran
cancro
##para
Wol
automaticamente
efficiente
##tizie
##ttenti
lampa
successive
Dre
##URA
Guardia
1992,
##deria
##.12
guardando
pensioni
cerchi
Dei
##urre
effettuate
equilibrio
adul
cavalli
integrato
considere
##tabile
salvezza
laggi
##ISSIONE
occupato
Aria
##gnando
mossa
liberi
##aÃ±
##silo
rifugia
##formance
##tribuzione
##Impero
riempi
presc
Ryan
fermare
Registrati
vicenda
Simon
Org
insedia
(')
notevolmente
##stare
Norvegia
frutti
chiari
##bla
Storia
simpa
richiedere
mentito
apposi
##top
##della
vinse
sva
Fabb
Add
private
elevati
##inari
ammon
##tituzione
proseguire
Ross
tassa
##rerÃ 
classificati
##lenco
mattino
mezza
pala
presenze
##coledÃ¬
##arre
investimento
telecomunica
interpretato
rinfor
##tinera
religiosa
##americ
##ESS
volevi
##lena
estende
dotate
scal
acquistato
##cutivo
prolun
separa
cadere
DisponibilitÃ 
impiego
legislazioni
##stante
##gnific
business
sexy
##erita
Muo
conversione
contrasto
vertica
entrÃ²
altrettanto
##Accademia
Cel
Royal
osse
##ducazione
##Austria
##olio
biblioteca
##dese
esteri
Sel
Mappa
rigoro
epi
promuo
assass
##entazione
##dele
portano
##vidanza
prodotta
riass
Card
##ning
ecolo
##pran
Ada
reda
##trona
attento
Batti
osservare
Inc
consentono
muni
riscontra
disce
importo
##altare
##bbigliamento
##gy
##erire
episodio
scambia
petrolio
fantastica
##hr
cann
800
preoccupazione
Hy
##IB
Harry
Dichia
perm
malva
##espressione
##EP
##hu
##nera
##chivio
##vetta
opinioni
Valutazione
digitali
imprenditori
##ORI
##kov
##cciden
permetter
Lega
riposo
pulsante
Lorenzo
strategie
pausa
sur
Giacomo
##base
##ben
Phili
definitivo
distingu
##eu
comprensione
##icago
descritto
trattare
fondazione
Ã‰
##rima
cottura
Caratter
olimp
occasioni
schiavi
##inanti
vincitore
##esposizione
strana
Vediamo
disegni
##adegua
Oriente
Condividi
rifor
colo
inutile
fotografie
corona
poe
##pati
Lil
assur
definita
individuare
sarÃ²
cereali
intendo
idiota
ricostrui
Lord
panoramica
fattura
##pubbli
appartenenti
figure
scrittura
Fal
avremmo
espressa
musicali
valido
##enzie
usate
Gardena
ragg
##ccando
##cfr
Mauri
mana
sostenuto
1981
Tan
determinate
Bell
salire
Capitolo
introdotto
rilasciato
marchi
Son
##enzialmente
Conten
Centrale
â™ª
caffe
peggiore
Tai
USE
sesto
##emendamento
##500
intitolato
##bis
Risul
##ess
scegli
scorta
sostituzione
strin
##importante
nottu
cerimonia
foglie
cortomet
leggenda
##rore
Ari
Deutsch
campeggio
Coun
##vedÃ¬
##54
perdon
##garia
abbandonato
##gibile
spiagge
conteni
Principe
##tenze
deca
paci
##mul
sabbia
188
archeo
industrie
crediti
Aiuta
PIL
you
##cciare
fermata
anteriore
##osamente
saltare
Filippo
##Ra
dazi
divertimento
##omen
cristiano
brevi
notevoli
##off
##frontali
##trazione
High
iper
##estina
argomento
passata
greca
avvenuta
Scho
causato
Dun
Matte
giuris
vinco
composi
sanitÃ 
comunicare
discen
Wanderio
##98
assoluto
ritmo
##entamento
rivolu
Usa
##istici
##zionisti
giri
Supp
diametro
##lancio
formati
Cur
ader
##efficienza
positiva
##tipo
rotto
precipi
Password
zero
##gran
##erete
promessa
rivoluzione
pregiudi
Prova
pero
Dati
esercito
estate
Hill
parametri
penet
formare
immi
ingi
spic
##].
argomenti
##teli
Qualsiasi
stabilimento
normalmente
##tuario
personalmente
faranno
dottoressa
risco
Que
farle
02
##mas
tasse
##onna
segretario
affres
cotone
assoluta
sanitaria
azz
legate
studiato
appar
celebre
##strada
##Gi
panorama
unicamente
contenenti
inta
##iller
croci
appunto
ruote
##ellenza
mantenimento
Maestro
##sei
balcone
decreto
documentazione
riserve
##dde
Invia
##ottima
##CR
arrivano
##universo
##tanta
##dei
##due
Sito
##Fran
Smith
inferiori
##chiesta
ID
Cy
bagagli
Hos
##mmina
imposte
Carl
preciso
##apri
statu
viso
scen
##acciaio
##bilita
Gius
desidero
taxi
Oppure
adeguato
spet
Alberto
parall
agricol
saro
Nero
conveniente
##lex
##avevo
tratten
##loghi
100%
finestre
##tariato
parl
Stampa
congiun
prevalentemente
agevo
sussi
##96
superato
muore
Animali
bottiglia
chiacchi
Andate
redditi
##icata
Mani
Out
coprire
##gamenti
Credevo
Tras
garantisce
butta
Ol
##Eccellente
leggera
stavano
assume
##tini
compiuto
##vecchia
##anculo
##FA
combattimento
transfrontali
strettamente
incorpo
##ep
##gino
Emma
Veni
disastro
##zzatura
##universitÃ 
bensÃ¬
##vet
Puo
panta
Radio
52
##ola
registro
##ttico
regimi
Direttore
##ption
##tane
##rigio
bugia
efficaci
gamba
Michele
ciocco
out
neppure
connessi
##dova
46
##dona
##LIO
sconfitto
uccisa
meraviglioso
##ichi
##goli
Chicago
proietti
rimasti
Ya
avvenuto
##ccidentali
Cavolo
infini
facc
quotidiana
##ng
universitÃ 
##dienti
Croce
tipici
legali
orri
##UC
##stem
scherzando
week
##BC
##-10
concerti
##uck
Davide
##mping
Inizia
associati
parliamo
##ac
scritti
esprime
nucleo
##97
raccoglie
Kevin
allegato
##nam
Meglio
##aereo
arrestato
Stanno
##aperto
Subito
CR
raggio
Clo
##inga
##lotto
1982
govern
costituire
Premi
4:
impos
legata
fiscali
Dunque
Ess
##mal
##keting
Corea
staff
##insegnamento
Dipartimento
suona
scendere
##Asia
##cani
corrispondenza
Dr
approfi
rifugio
##laritÃ 
scontro
##zare
fabbricazione
Music
riprodu
individuale
##ments
pulizia
affian
indicati
##UL
diro
statale
proprietari
54
bestia
##0,00
taba
cardia
##lone
##vito
Contatto
##93
risie
##cchino
tradizioni
autonoma
bion
##ENZA
##architettura
##""
##oluzione
Stefano
Eff
tasti
##**
insegnato
collegato
Scuola
Mosca
##56
contribuito
##plica
stili
dubbi
etichetta
##52
calma
pubblicati
allontana
Potresti
danza
volumi
##gasmo
eredi
vederlo
favorevoli
Book
corse
Inten
abilitÃ 
Segui
AM
##EE
Seleziona
Molte
##fen
Ecc
Dy
assenza
mq
##hen
seg
fedel
##grafici
elaborare
##por
menu
futura
(3)
rintra
##gersi
##Da
cifra
ospite
##ies
##beth
##vallo
includono
Ram
Miss
ripos
Cic
neve
##blo
##gerÃ 
eventualmente
##inistro
##:19
creata
scultura
Tal
##dol
Inser
Ospiti
apparecchi
Lombardia
avviso
Fantastico
Verona
sonno
##AV
capisce
##AMENTO
##Ã­a
core
annul
CECA
##zina
##than
famosi
1979
2006,
immaginare
Testi
Passa
rese
consentito
##elia
Seconda
aer
2005,
Mana
sacerdote
insegnanti
gratuitamente
Cup
simboli
Inn
puntata
bib
impegnato
##rgli
avvis
##vvigionamento
2010,
Ponte
estensione
Olimpia
cercano
bronzo
SS
subi
1999,
##ters
##.20
innanzi
celebra
##NL
glielo
potenti
##witter
1.1
hard
Parti
1993,
Promo
64
47
sogg
anale
dispia
occupati
religiosi
Roberto
##vise
indossa
riesci
##vande
##mbu
Jackson
##ek
Sali
##-7
##cea
1994,
##bera
agis
Donna
vel
##01.
usano
precisa
rafforzamento
operare
##sio
andÃ²
cattiva
##antico
intervenire
##utÃ²
russa
riusciti
72
mento
2012,
efficacia
##parto
contento
satellitare
##ceri
soddisfazione
Gener
amatoriale
tuttora
profondamente
commissario
sostituire
##Ordine
riso
Vero
compromesso
discussioni
##erlo
autorizzato
ricostruzione
##iro
controver
giudizi
Bisogna
stress
architetton
1)
eva
aumenta
##ray
##luppo
franco
##sin
##alber
mangiato
##ERE
gravidanza
##stata
duca
altamente
Jake
Land
transa
sepp
festival
Sole
186
destinata
riva
he
pesanti
ancor
vers
##ings
##Ã¼r
##ju
trasferito
ricic
riper
trovati
##craina
stradale
previsioni
tappa
Politica
giornalista
Divisione
intrapren
social
ritenuto
##..."
##derai
orari
acido
incu
valida
##-8
stazioni
##desidera
ob
artista
140
Roger
vampi
Perfetto
ossa
uniforme
manda
##agne
##interpretazione
legitti
partiti
##elmo
##ucc
divieto
##gratulazioni
rendendo
applicano
##Che
merita
sedia
Af
sopravvivere
pin
ribelli
56
beneficio
##ttanta
##approvazione
educa
definisce
##aprile
compresse
##fficiente
scopi
predis
foreste
##ICOL
tubo
##allar
ringraziare
tranquil
Bren
prassi
##vey
##inquinamento
venerdÃ¬
##1999
ferita
White
Ãƒ
catalogo
11,
svizz
2004,
gratuiti
concernenti
Cesare
Fuori
monastero
Mondiale
Joseph
Naturalmente
Dato
diminuzione
##Es
decenni
differenzia
esercitare
tÃ¨
##interro
invito
##fino
costantemente
emergenza
flessibilitÃ 
##tos
##turba
completare
##ITA
Finalmente
discriminazione
settiman
##wen
Federico
identitÃ 
prede
futuri
Virgin
anne
sh
stamattina
sovven
distribuito
Under
iP
Met
##gionale
##celle
##],
##.11.
Bulgaria
compiuti
Clicca
VII
brutta
##cap
perdono
essersi
1990,
Brian
amare
##vescovo
##anotte
##zzini
##tory
uscÃ¬
annuncio
utente
operano
Barche
fallimento
##dae
##ecc
##soft
Governo
restrizioni
disti
Attenzione
campionati
Spazio
##zu
cron
aggiunge
tecnologico
##vir
tomba
Studio
Paci
Poco
##stone
conversazione
scorre
Jaco
mica
rifiuto
Tag
province
destro
##derÃ²
Area
essenzialmente
##gire
##eries
##zziamo
##eriffo
noleggio
##pena
espressione
##geria
finta
##cona
suonare
##derla
##vando
2011,
##ssio
scop
transizione
12.
##tum
Big
Dovrei
positivi
13,
paragrafi
fibre
##quila
scarico
camminare
debutto
sotter
##initÃ 
Pho
Palermo
Parcheggio
Continu
indesidera
boschi
benvenuto
##AF
insi
cominciÃ²
Pio
Scegli
##yd
Eric
cavali
fuggire
prigionieri
altera
statua
costruiti
barba
##icidi
##assassino
integ
gloria
Bir
51
averti
botte
##tarlo
inclina
agricoltori
Jeff
Temp
Democra
##elly
guerri
##chen
##51
vettura
Ash
Piscina
finalitÃ 
Capp
Oggetto
Francisco
dinanzi
premia
causare
negativo
campagne
Ku
solitamente
Flori
##camente
2001,
Wat
relax
andava
Vista
##perti
commi
Attra
cus
##colari
##lita
entitÃ 
richiedono
talento
Maggiore
cali
##Na
Clau
ecclesia
Ricordati
##miera
assicurazione
Colore
andrÃ 
cortometraggio
##letti
gino
auspica
pittura
protagonisti
Vice
Pisa
aggiornamento
mancato
contattare
composti
impiegati
LE
Las
##improv
##gorifero
Parere
occhio
NO
Siena
massic
miracolo
##mens
##laterali
##box
##estri
allena
##dan
recensione
autorizza
##sy
impazzi
carcere
Master
maschio
##tedÃ¬
Utili
Vergine
##ventura
Road
stavi
##bica
Steph
prestigi
saggio
stima
sintesi
More
assum
introdurre
##ovest
pulito
Federazione
svedese
brucia
portoghese
##ziamo
spera
tribÃ¹
##urare
continuano
Gold
college
Ala
realizzate
bosco
Matteo
##agenzia
dischi
hi
comprendono
Massa
news
Blue
dite
attuare
acquisto
scappa
carbonio
penale
aerea
coltello
specialitÃ 
##very
Lady
cifre
partenariato
##even
prendono
##ory
diale
prometto
2007,
##accetta
pensieri
svanta
Mala
SC
osservato
mediter
##"'
1/
bersa
governatore
##uovo
schema
bran
artistico
tesi
##ANO
dovrai
##nico
parlo
satellite
1995,
coperto
soccorso
disoccupa
unici
back
##basti
Play
conferenze
assi
lavorano
proveniente
Notizie
borgo
accer
minimi
ricercatori
##utori
May
aventi
difendere
cattedrale
Team
deserto
Vostro
sfuggi
tenore
improvvis
##ggero
gola
##trato
ela
Cipro
definiti
##Come
terreni
alternativa
idone
##orgia
Jones
##TIV
##pan
orientamento
religioso
logica
sopran
EspaÃ±
schiena
corrido
Cultura
eccezionale
NON
Lavoro
##his
##emer
nottur
spara
competizioni
##06
Set
2008,
##ject
detti
candidato
Pare
##less
riflessione
fissare
videogio
punteggio
margine
##Pi
straordinario
Purtroppo
troverete
##ingo
condurre
##Chi
##board
##loga
Aspetti
segnali
##FORMA
cadavere
carbu
14,
##ety
##ctory
##her
scienze
Anno
economia
consumatore
##imb
lanciato
pittore
manipo
aeree
impegna
preoccupazioni
probabilitÃ 
veloci
##els
##bano
laurea
##doro
cresciuto
Gon
complessiva
Congresso
##tologia
XVIII
performance
{
Pom
##BA
aziendale
##vico
potenziali
amministrazioni
##ettiva
preoccupato
##ttÃ²
racconti
diffusa
contenere
grasso
##medio
obbliga
fedele
farcela
future
britannica
##alia
##gal
ravvicinamento
agenzie
isola
suss
prevenire
piloti
incante
mentale
##lini
girare
ricchezza
Galleria
2003,
status
2002,
##Ã©e
##ggono
fasti
Nas
Ran
originario
diri
esperto
Vaticano
##00,
Capito
##culi
Scusi
Pian
colline
##ggiano
coperta
statunitensi
purtroppo
##identitÃ 
narra
##INE
Tua
Amy
rina
aiutarmi
##53
Newsletter
rappresentare
fumo
rista
Indo
ultra
Speciali
##Stati
straordinaria
notti
fornite
golf
cemento
Hall
bagni
mission
##uncio
sacra
edizioni
iner
##zanti
efficienza
##venuta
conformi
completato
##ventÃ¹
forniti
Atlan
adora
clinica
ampiamente
RT
avveni
incis
delegazione
##urs
trasparente
1991,
Giar
raggi
avviato
compra
##alimentazione
vedono
##spru
autorizzazione
Haw
##citare
Assol
afric
Nota
pioggia
Prenotazioni
Casti
clauso
##pli
netta
Suda
chitarra
guerre
creando
sorelle
##ellino
qualcos
escursioni
Norman
prenota
SEE
##vino
subordina
limitare
Associa
clic
nobile
(6
nucleari
##cky
presid
atteggiamento
consulenza
dita
##ennio
mandare
dimmi
Kate
Tech
##rezzo
##ming
preca
immagino
critiche
picchia
coraggi
1975
applicato
##cue
frequenti
aspi
tieni
##Ã£o
foglio
impiegato
contrasse
Tar
##mburgo
2013,
giunto
fidanzata
##To
sacerdoti
##cing
##det
sangu
##Io
Potremmo
nar
fumatori
##inverno
Fermo
##rs
Dovrebbe
##ERV
impression
##ustin
lontana
##thur
Guardate
91
##ather
##.:
Fabbrica
Otto
##donia
acquisti
circonda
03.
impegnati
ragazzino
petto
corrispondenti
##doc
mul
impu
PE
dipinti
risparmio
Top
industria
##sburgo
##inferno
proporre
estratto
##ssano
Conos
insegnante
borg
mostrano
considerate
commesso
##oper
##pata
pietre
mistero
Disp
buio
quante
Spia
risparmiare
preparati
Lista
funzionato
progre
trappo
Bay
Sloven
albero
limita
galleria
opinione
Domani
sessuali
nobili
ep
bul
Sir
Amico
Cru
08
fornitore
##bbie
clicca
##dence
modera
seguita
registrare
Luna
padrone
Vogliamo
citato
Pale
diventano
ricevette
marmo
perfe
presu
necessariamente
orgogli
contenute
##zy
riescono
##albero
Mini
##Mar
##onica
Indirizzo
##incarico
espon
avermi
spirituali
idra
##tona
##ttendo
Leo
indicano
perfino
giardini
professionista
##mita
##teroide
##osaggio
##zichÃ©
raccolto
##lavia
riproduzione
parlarti
##row
giusti
##Fa
##ramento
Hey
chiamano
62
Presto
##eller
canta
evoluzione
##At
Scom
Johnny
manifestazioni
Port
##duci
##incidente
Ese
##57
cardinale
##phy
top
##nes
tute
Rad
##frutti
compli
rimangono
ripartizione
elettorale
averla
potessi
diversitÃ 
##bate
tenente
anime
tornÃ²
Challen
frega
seduto
##ats
##58
Suite
##rink
XII
religiose
coppie
##mil
protetto
##anello
ante
giapponesi
manifes
abbond
Sus
15,
##Questo
Elena
conosciuti
austra
Billy
professione
facilitare
##dum
peraltro
muove
soldato
BT
Benedetto
raccomandazione
Vangelo
Ia
Claire
incidenti
##cione
tanta
aggra
Sicurezza
Istitu
1978
Circa
Hanna
neri
descrive
continuato
##Ã¨re
##mela
##ala
coinvolti
Confron
##kins
Romano
fidanzato
Hit
2009,
statuto
imma
Rol
fiera
##Auto
Mil
Insieme
cortile
accolto
terrorismo
##fri
Tommy
puro
dece
individuali
##marti
glu
dette
innovazione
musul
Case
Island
04
Mont
carina
##mitero
liquido
territoriale
cella
Alta
Gala
consulti
resi
tipica
Eppure
accusa
medievale
Messa
##gona
oma
saprei
cure
esplici
##ttoni
garanzie
battuta
refer
##PI
sfruttamento
sezioni
vendetta
temperature
Bari
leggero
torta
raccolti
lasciÃ²
##NI
bastardo
accaduto
architettura
zia
Lasciami
Abra
bevande
Alice
formale
Vita
votato
parente
##tant
dog
determinata
darti
Certamente
statistica
XIII
##PE
Marocco
saperne
affitto
perdendo
brillante
Loro
##trio
##ines
School
abbandonare
Ide
aiutarla
##07
certezza
Pero
isra
legislative
Pier
tessili
##DF
ritorn
download
Day
mari
pura
Campionato
larghezza
Way
##xe
farei
##"...
incoraggiare
pene
##Euro
Live
##idro
batti
uccide
##mea
Persone
##vini
arricchi
girone
guidato
Love
##dinanza
sinistro
avvol
gatto
Qualora
lavor
Holly
atmos
##pedia
fargli
verbale
criminale
##kistan
##matici
##bbre
usu
Doug
Cho
Person
##09
pelleg
concreti
##cherÃ 
avessero
artistica
##heim
attravers
dispongono
##inando
##acco
vertice
pasta
2)
tosc
##aldo
rid
pensano
singole
Interpre
diciamo
##Sono
bisogni
Arrivo
conflitti
porno
tortura
residui
serra
##vre
##Gra
zitto
France
##ttero
##argomento
colonne
consiglia
raggru
tutt
que
sfondo
##affari
Edward
cerc
Belle
adeguata
assistente
Anzi
alfa
configurazione
Alpi
rivelato
##losa
uccisi
##fran
lentamente
06
##Una
alternative
parlamentari
identificare
ampie
preliminare
1.3.
##key
principessa
##ggiante
generi
consultare
Elenco
missioni
luned
conservato
Confe
mostri
rabbia
Musica
Paris
scale
sparare
##AI
Miglio
ovvio
stabiliti
##Ã§ais
HD
amicizia
consecuti
organo
##tarmi
scaricare
##ugos
##andy
contengono
tendenze
liceo
muse
vulnera
##bine
spiegato
richiesti
##fal
##nea
Java
##rt
dure
fama
AV
collegati
etta
bla
esibi
Faccio
6-
vinta
tv
Addetti
ipotesi
##albergo
assun
##ssen
sposÃ²
Mag
Passo
villaggi
##.4
abba
sanzioni
##bbo
proro
##equipa
##ING
Progetto
intellettuale
##ttuali
187
##avvocato
Stazione
Fur
variazioni
danese
arrabbiato
##:30
50%
apparente
colui
lunedÃ¬
ritira
Appro
impegn
Laura
vigilanza
##rome
Center
Bis
succedere
Docu
sceneggia
##assicurazione
##................
montaggio
##orth
cinesi
dovevano
Dico
CAR
darmi
Fallo
Industri
Rachel
##enico
Sede
geografica
esposizione
pop
dotati
fecero
##.11
##entato
##(200
terrÃ 
irlandese
fresco
assistere
trovate
scritte
2010.
condannato
osservazione
Bea
specchio
##sprudenza
poesia
Som
aspettati
Tim
naz
Robin
volti
trasferÃ¬
##richi
orologio
coste
curva
piangere
Emily
Tok
Diven
accoglie
Nic
tenuti
Pun
53
aller
##El
##(9
apparecchia
preserva
Andy
ON
Eliza
Significa
##rac
continente
Sapevo
radici
Kir
Gine
Contra
Caratteristiche
patria
Est
##tail
conve
partecipÃ²
operazione
##epi
pazza
Evan
riprendere
##arsene
rileva
One
latti
Richiesta
##ario
Quelli
Nicola
informato
Riten
##aron
inga
##china
##Col
bara
Assolutamente
##08
##attene
tocc
ponti
Tratta
##MT
##granti
##sale
##ZI
Stagione
ratifica
##...?
clo
coerente
##CD
##IST
vapore
09
vittorie
riportati
trasmessa
paradiso
Online
Dottor
##inate
stor
Transfer
##doni
##tarti
Esc
Altro
cinquanta
penna
cosiddetto
strategica
07
//
Scozia
siate
##imm
##Ã­n
Jason
dida
##ulteriore
Alb
interc
urgente
Quasi
North
Sacra
fortunato
accogliere
Group
supporta
##Ad
pluri
custodia
Orig
##terapia
compatibile
Mas
Sebasti
conci
##risce
equilib
##spa
congregazione
esclusiva
XVII
somi
bilanci
with
Twitter
sfa
accuse
##piÃ¹
retroce
incaricato
codici
##Eterno
Vedo
##,"
urbano
Brown
ingredienti
parlano
##pes
##Ha
##pevoli
Piacere
girato
tabacco
##bola
Proto
evidenza
##ennis
vengo
##ggie
1976
##house
manti
##har
Della
##presi
##rey
giungere
parzialmente
Accedi
##ERC
ebbero
prenda
Comunicazione
##sura
affaccia
intermedia
emozioni
ispirato
Rosso
##raq
##mona
##artene
ritorna
United
aggiuntivo
Fis
##unno
1977
separati
bacino
##avete
roves
Informa
Med
piaciuto
RE
occidentali
includere
PA
##uda
esami
2014,
Tranqu
dovevo
##ATE
##Egitto
belga
##stle
attentamente
dieta
spessore
##versione
giocando
pall
fiore
capaci
Oro
pianificazione
associato
eseguito
gall
energie
Istantanea
Prin
preda
POL
rossi
Gali
scompa
##AND
accompagnato
potremo
fondatore
frontiera
grigio
bonus
misto
Fir
##agosto
##minando
arresto
##ssor
sbor
utilizzano
16,
correnti
elettronico
##urrezione
##pola
maschera
##tole
ottenendo
##indipendenza
coinvolgimento
##maco
##uolo
grassi
disporre
iniziata
##uratom
##guarda
##oggetto
Bianca
tatuaggio
furgone
Beni
provi
59
##glioni
svolgono
civiltÃ 
passate
tentato
Leonardo
##ssando
spaziale
ospitare
##gom
moderne
domestici
pantaloni
generazioni
##minate
consenta
grafica
transito
##sser
matematica
##sori
rimosso
##Bi
pr
infe
Microsoft
approvazione
dosi
Costituzione
Barry
signific
installare
##unior
##RO
grossa
stipu
ortofrutti
ref
EU
Vio
ceramica
Zoom
dovette
##dney
##formi
Padova
Sicura
poliziotti
##tunatamente
allontan
passeggiata
##uk
incluse
promosso
Spor
Direzione
##assenza
##cheria
pensate
Veneto
svegli
##organismo
##educazione
unita
discepoli
pillo
Scheda
medesimo
PRE
trucco
rimborso
salvata
##erito
suggesti
superfici
##hard
2005.
riservato
##:1
Neanche
Beach
asso
##Inter
##ENT
##gliarello
bicchiere
selezionare
torni
INFORMA
Inverti
Tun
##5%
sportivo
criminali
rasse
indicatori
ispe
laterali
Torn
garage
venisse
Teo
##istare
reparto
Borgo
2006.
##ranio
apostoli
attore
sessanta
poste
Apart
mettono
Affari
CB
blog
McC
sistemazione
prostitu
peccati
Spen
imperiale
rimuovere
ato
logo
sovie
presie
formata
##parte
##pazione
approva
Gla
giornate
condotti
Cine
##agg
macro
allesti
denominato
##grati
chimici
malato
##tilitÃ 
veli
##tÃ¬
Show
innocente
pales
seriamente
mise
predica
adeguate
PRO
Categoria
Nato
sentiero
##ics
ego
30.
restano
difen
dignitÃ 
##press
##mentata
stanotte
ruoli
##guendo
modella
1970
Meteo
58
##iamma
##onato
propa
##onde
scorte
Egitto
corruzione
arrivÃ²
pareri
Power
canna
##ganza
Alto
ferite
sospetto
COMMISSIONE
sbagliata
##San
BEI
##vocati
Forum
##shire
ragionevole
##inchiesta
divina
spettato
marche
latina
##mero
##nazionale
armato
Strumento
puntate
Mili
Ieri
vasto
persa
##dget
cookies
settanta
assassino
diviso
##ghiamo
distor
##enzione
##ttanti
##//
##plo
##ettate
loco
applicata
Bun
secco
avvenne
Chiese
22:16
##ylor
significativa
pertinenti
letter
##evo
cugino
deva
Adi
Adri
Lie
sonda
estera
troverai
##esempio
volere
##ssimitÃ 
segua
percento
esord
quantitativi
Plan
Vittorio
regg
##datura
##vacchia
percorsi
formaggio
regia
quadrati
##aritÃ 
Durata
##ATT
##.).
riviste
##bian
democratico
Kong
promozioni
pilas
##scritti
costume
giovedÃ¬
Agente
contrad
conclude
Sovietica
##ark
##ordia
##-11-13
conseguire
##fatto
rami
##improvviso
porterÃ 
Lingua
legami
vecchie
divisa
Sper
##lero
Vattene
Peru
##neuma
Congre
sarete
Polizia
##tech
22:16:19
volontari
vani
##hl
##onate
Venne
lascio
database
burro
conseguente
arbi
Chiudi
amministrativo
falso
##198
57
franchi
sapore
frequenta
appalti
Viet
coniu
pericolosi
scienziati
##matiche
comunicato
##ppato
vincendo
##simi
consac
##ziato
roccia
Bravo
##ap
meccanica
valutazioni
aran
##rete
##ttra
smesso
imballa
privilegia
Joh
##leo
Phil
torno
##itali
quindici
incremento
##ongo
##gnolo
FOR
Avevi
##cchiali
GI
convincere
##perta
##becue
variabile
Buonanotte
##nici
##tures
Aspettate
puri
cosiddetta
canad
Kim
mila
##ccordo
giovanile
vescovi
##gliari
Elisa
arci
trage
Florida
continuamente
sottoposti
##mbiente
play
pellicola
rinunciare
validitÃ 
restauro
Basilica
estin
certificazione
17,
##LEG
Calabria
##unita
Ford
22.
scanda
memori
continuÃ²
negativi
abiti
convi
beneficiare
salto
##!!
##QU
viaggiatori
trasformato
trattamenti
sigare
eroe
Luglio
sembri
Gugli
deroga
produttivitÃ 
Ginevra
ritengo
stabilite
singolare
##bata
##gura
sottile
sapevi
##nor
##ccidenti
scherzo
Arte
rimp
##postolo
Jona
##ghetti
##chester
Gesu
densitÃ 
##ttp
attacc
Isole
nascondere
Signorina
dÃ¬
##inna
##alza
Vil
##dicesimo
##ind
anten
Texas
sigi
##pite
gh
falsi
##dard
avversa
##viglie
##dentemente
Percentuale
lasciata
Volete
Dolo
Ferro
##cade
illegale
Commer
appoggio
Veramente
minacce
##INI
##accusa
##tantino
compara
160
College
decennio
Danna
24,
anzichÃ©
Dovete
esatto
Gioca
##ualmente
##Vo
manager
##CC
baby
ritornare
##bour
##pori
03
Richie
seguono
2015,
ind
intendi
(18
Len
##ARI
parecchio
Sur
##ficano
figlie
##derur
Digi
fortifica
rispettivi
regolari
affascinante
Bobby
esaminato
isp
renale
strutturale
##ficando
argento
##drome
comi
coro
Bad
2007-11-13
confezione
omicidi
mali
equ
##verai
od
UniversitÃ 
##erati
Parli
##.201
Segretario
##orbita
##uisce
sposata
installato
##zon
(201
Marsh
##annes
ottima
riuniti
decorrere
igi
fegato
amato
##dabile
recita
Ricordi
##bes
mesco
impegnata
prezioso
##Gli
abili
strato
matri
Mori
##===
REL
incastra
##ossi
gode
orecchie
##5/
##okie
equivalente
##retto
##rence
disturbi
sospeso
##zzante
Regis
conosciamo
gestito
place
##ziamento
##vÃ²
XIV
ruota
enormi
svolte
mantenuto
meravigliosa
appello
uniti
operativi
##ets
rurali
##laggio
##iodo
Nem
Josh
frus
fisso
eterna
verdi
cattolici
veda
sapi
atter
elettrici
fascino
eco
sacrificio
20,
##ush
dovremo
portafo
serp
comme
noci
##pacitÃ 
Fondi
poeta
collaborare
comm
uguali
democratica
istituzionale
Marche
##ticoli
iniezione
lieto
South
##llato
check
favori
##mono
fredda
semif
indovina
rame
ridere
tron
Appena
##usci
legna
##esplo
Buda
santa
1998,
13.
Eva
Tanto
Ir
Slovenia
SA
Eu
##tamento
##investimento
offerti
collabora
Senta
sorte
Kla
nastro
1973
sconto
##lire
Merce
verra
##ggendo
##ASS
Grace
##201
130
vederla
sveglia
sch
Harris
preoccupare
trasferisce
guardi
MED
flessibile
##liana
risve
Trasporti
Venite
toccare
dinamica
accompagna
massimi
##Sta
pressioni
86
figurano
arco
disposti
orribile
##uoco
##trica
##ggiamenti
espressi
##iate
Qualunque
##teni
fenomeni
fattoria
##monizzazione
proteine
##architetto
viste
Econom
96
incarico
Prepa
##reria
##UZIONE
##episodio
Cari
Hong
18,
Praga
14.
infi
Anne
geomet
Maggiori
##ago
Salvatore
bombarda
interessata
colonnello
##ERO
2.1
##ssori
fisiche
rientrano
Arthur
Termini
disturbo
riflettere
verticale
collegio
##pher
letteralmente
Pasqua
diffusi
risolto
Ener
cantare
finanziare
spiegazione
mail
allun
designer
lavoratore
Conosco
trascorrere
impronte
offrirti
accogliente
minerali
buff
Fro
intenso
caduto
benzina
rivolto
ottimale
Adozione
confusione
##appren
tentativi
credevo
aperte
ungher
INFORMAZIONI
##larsi
missi
emendamento
66
vigne
rinchi
Pete
Episodio
##zen
[1
cappello
plena
Prezzi
Taylor
integrata
cittadinanza
bei
vitale
nervoso
trasformare
odier
sonora
folla
dovuti
##zzanti
Carlos
Napole
divul
dissi
darÃ 
giuria
##ccidente
##emergenza
##verÃ²
##veremo
##logy
##tas
##olino
vegetali
##Israele
scomparso
avra
critico
ottanta
Associazione
disper
servito
genio
##Org
Bow
scarsa
pulita
##mentica
anniversario
Testa
1996,
aumentato
77
partecipano
concorrenti
assorbi
COMUNITÃ€
â– 
weekend
spettacoli
fedeltÃ 
ombre
figliolo
15.
distra
visibili
tol
creature
##ciliazione
##tative
scientifici
amanti
codi
Controllo
Rispon
61
quinta
##gÃ²
PU
mito
turistiche
##Mon
##MO
sedere
shopping
organismo
prossimitÃ 
##://
Bello
pompa
circolare
sopravvivenza
84
messe
apparecchiature
##pest
Gru
restituzione
##ICI
separazione
##specie
Anni
##Ex
flui
##glietti
##loso
esistenza
##lana
700
obbligatorio
fresche
##aveva
##ME
buco
##ration
guidata
andra
veste
interpretazione
##mobile
brasili
abbat
Museum
##foro
2012.
cimitero
##ggy
preferenze
anello
marketing
conservare
Metro
##EST
compor
Nova
##lei
##stati
1989,
##estÃ 
mancata
drink
approvata
dimos
Oliver
##riato
navale
sportive
##tty
mete
##INA
##rine
2008.
Sconto
##rici
##ERA
##laterale
Championship
Wood
##ghts
94
##uele
##appa
##ficati
Williams
Massimo
fissati
##iscrizione
Ordina
##ortatore
93
prele
occupata
convento
##gement
trasporta
accura
trasmettere
dito
sten
Fil
completamento
sovrano
legislativo
Ballare
votare
ascolto
Nath
Ucci
comunemente
##BBL
London
rappresentanza
felicitÃ 
23.
MT
riparazione
##SC
dirle
Virginia
##PT
125
##hy
chiedi
originaria
##ssante
raccolte
##ARD
riforni
elaborato
##Cam
2009.
collana
specializzata
Bang
##ecce
gua
sbaglio
##vene
Elizabeth
benchÃ©
diventi
Series
occupar
provando
##ESC
Vostra
Hank
##PA
##animitÃ 
##mili
ze
info
invitati
storiche
controllata
Angelo
cresce
PROD
liberamente
spinta
LED
indossare
IX
##-12
##manda
Profilo
Risoluzione
Bianco
##erba
Christo
avvicina
##pyright
##gali
Produzione
##lettino
trattava
##plici
##finanzia
sfera
##tran
â‚¬.
effettivo
asten
liberazione
Intere
Direi
1974
sensibile
##zona
Juan
reputazione
frigorifero
Chiunque
##ettata
cop
monumento
mezz
disoccupati
svaria
Trieste
##eliminazione
respiro
free
Chuck
teatrale
2004.
miseric
Mira
trion
##vier
selezionato
Meta
reclu
##prendo
##vanderia
inevita
Verde
ina
formano
scrivania
##inal
Temo
lettore
Gas
##tÃƒ
NovitÃ 
##approccio
gioielli
##iacu
Ham
Umb
cha
compare
Grandi
EspaÃ±ol
##avan
Proble
altrove
##trerÃ 
temporale
##ister
conclusi
Vincent
DG
studiosi
##terina
##phone
abitato
##trali
aspettative
Luke
DOC
originariamente
##aux
bicicletta
coerenza
esserlo
stomaco
##unci
##gole
Conne
angeli
##inaria
ritrova
##infanzia
dirÃ²
ripreso
Argentina
##-20
92-
5:
cognome
giura
melo
gla
##IZZAZIONE
NEL
guardie
chiarezza
##cinetto
carburante
Guglielmo
##ranee
##nic
fatica
Fabbricazione
##FC
trappola
Sale
Ore
(4)
trascorso
vomi
##vederci
cala
ubicato
sottoposto
##100
##iani
attaccato
sici
##anesimo
mantiene
autorizzati
##ternitÃ 
pericolose
consapevolezza
bravi
##viato
98
tubi
avrete
##On
suite
Ufficio
Voli
sconvol
##lÃ©
JosÃ©
attivamente
Luci
Leone
##capelli
raffred
concessi
##chine
avval
##ugu
giocattoli
acus
Corre
ballare
terrestre
soprann
Setti
Siria
##lly
Ricevuto
##gatore
palestra
tengo
serbato
appropriato
Sea
insegui
Spesso
ideali
guadagnare
raggiunse
rinnovabili
osserv
chiamava
faccenda
##1994
partono
##mir
##segna
##vacy
2015.
1972
##scere
nozze
ospe
incredi
##hone
##ttata
affidato
Italy
Nemmeno
invernali
Kra
impone
2000.
rilevato
esportazione
dottrina
facevano
addor
Costantino
rigido
farne
##laro
PS
saremmo
##ombra
agriturismo
Hei
litri
184
penti
Distrib
Bambini
sequenza
Well
artificiale
abu
Aven
andartene
##urazione
Rela
Pet
Eddie
arren
Ferma
viola
rappresentata
allenatore
confermare
produttivo
dargli
##/92
76
##ziose
Medic
elevate
Ferrari
ettari
##PL
Mercedes
110
Acqua
decorazione
##lismo
dominante
sano
cioccolato
##onto
basati
##esigenza
##Ver
conoscono
Alfre
omaggio
Dean
preferita
##nazionali
fermato
ricomincia
cabina
aziendali
scenario
distre
giudici
applicate
19,
Recitare
debbano
complementari
Atene
concentrazioni
##NE
Ricorda
kit
povero
marti
Johnson
Loca
resistere
ii
Real
profumo
impon
##xa
Esistono
##domi
##inva
Battista
mappe
forniscono
confortevole
MosÃ¨
perno
##inglese
##nate
svolgimento
ricorrente
pazz
basse
##encia
Multi
trovÃ²
rilevanti
Settembre
turistico
fiumi
talmente
Membro
fantasma
Kar
combinato
2013.
contribuisce
falsa
messic
Oscar
mancano
ammirare
##bul
##thy
##xel
Hard
Mara
evan
spari
gravitÃ 
##Tre
giuridiche
Brook
Squad
Congratulazioni
sostanzialmente
grano
vere
##ison
2007.
2011.
##cam
mercoledÃ¬
oh
giunta
rap
mangi
sorgente
stradali
immo
preoccupata
sovvenzioni
##taneamente
Legge
##ckey
##utico
circondato
inden
29.
retta
esclusivo
##taneo
Morgan
creduto
##__
Tito
seta
##fato
affidabile
conn
##smi
pneuma
stavolta
aeroporti
from
Laure
terze
##alba
Pubblicato
deboli
##GI
Satana
Cucina
NC
##stanti
collegare
venditore
##organo
##fun
Soli
##bitat
riduce
annuali
(0)
Cogn
socialista
Riferimento
alcoli
salari
Budapest
sistemare
esperimenti
riservata
gala
##dure
diagnos
##intelli
By
Altrimenti
Boston
Ful
Charlo
##iato
##informa
Mada
prenotazioni
tramon
oneri
##Go
Signori
68
fresca
esposti
gesto
Eravamo
Ern
##AZ
Acquista
##mpire
##amico
costruzioni
stavamo
##ite
terape
##cchini
arrivi
espansione
Pacifico
360
Monti
Patrick
16.
copertina
recla
ingran
laboratori
Catto
accusato
##tropo
##schi
istituzione
farmace
ammettere
dotazione
accet
lottare
trovarlo
##turbazione
televisivo
##intenzione
intenzioni
creatura
musicisti
viti
roton
particelle
Ted
pato
Pagina
concedere
##ttolo
##ettivo
Sentite
sottra
estrema
culture
Squ
dipendente
##visto
adottati
opzione
Famiglia
ful
ivi
Immagini
Uh
armate
apprezza
consigliere
fantasia
Pierre
73
supre
prefi
##old
are
Salute
dicia
Clark
eliminato
clinici
##bir
scolastico
femminili
scientifiche
tasca
APP
Pes
Greg
Mul
Campi
##Scri
napole
cade
morendo
31.12.
##armonizzazione
adozione
Titolo
derivati
##equilibrio
riconosciuta
endo
bersaglio
convergenza
supplementare
russi
Romani
Fred
penisola
telecamere
##ghan
vorresti
offrendo
Scar
miele
##iscano
Nan
10%
Rip
##fis
rottura
settimo
Spogliarello
corridoio
Formula
Jay
##Organizzazione
##ensiva
##intervista
Clienti
Rappres
##ssata
##curi
siderur
##pita
femmina
sentita
Alan
dimora
giurisprudenza
Cavali
confronta
accessibile
dimostrazione
Tabella
catastro
erba
affronta
Rebe
##aggiun
Fern
primario
epa
Benvenuti
MAR
cuori
terrori
avvenire
##pha
##kers
##ICHE
andarsene
Pesca
Quante
##mbasciatore
Alza
##dorf
Sub
##cto
posa
##sopra
##ONO
Law
palco
Dichiarazione
color
topo
ospedali
cameri
##llela
rito
richiamo
impro
metto
Resynch
##dit
aggiornare
Calcio
##equipaggio
scaten
##vica
aggiudica
ripe
appositamente
##vanza
sostenibilitÃ 
##CS
suoni
network
contribui
innamorato
1980,
Vietnam
intesa
aggiornato
##mel
credono
##:3
Steven
##geva
arrabbiata
killer
proposti
HA
##For
88
##mbH
1997,
alleati
Sviluppo
UK
scuse
reciproco
CIA
##geo
lieve
chimiche
barche
##orario
crimini
Porca
leva
Fonte
bianche
salvaguardia
precisamente
occhiali
operativa
Cuba
##URE
analizzare
esag
delica
##ITOLO
alimentazione
##RT
piste
Challenger
definite
psichia
raggiungimento
##wit
Consul
sincera
lasciate
egi
neuro
parenti
##rosso
folle
discusso
musei
lontani
suggerimenti
##cendio
contenta
##circa
##hat
##asto
Victor
##uer
partendo
##mpagne
INTER
bevuto
bacio
farvi
sceriffo
espan
Residence
seminario
molteplici
78
##EF
##inde
Cagliari
Archite
##ipotesi
petroli
##originale
giuridici
Conosci
volare
orario
sussidia
produzioni
imi
Dublino
trarre
Rick
istituire
denominata
##...)
Velo
sofferenza
##Alta
convincer
macchia
impedi
##td
Kat
##Be
riferimenti
divorzio
Golfo
##DR
Entrambi
Ria
crema
##gamo
Diritto
inserita
provengono
Verso
venir
Sicuro
Eccolo
21,
chiuse
sacro
69
##natura
##mmet
Lavora
mantenendo
##impero
plenaria
dipendenza
sviluppati
Ferdin
gioventÃ¹
##sivi
ramo
##avrebbe
sepolto
firmare
rubare
##Alto
Batta
It
##meo
sodio
atmosfer
trimestre
Intanto
Confronta
intraprendere
Fini
Contattaci
Rila
classici
Dave
procuratore
##PPE
chiude
Ringra
Gord
dedicati
Raven
sedie
##ml
##resci
insetti
togliere
Sudafrica
rispe
##-00
##jan
strategico
##asc
Ponti
##pal
predisp
normative
##clatura
##zzatore
intitolata
tunnel
Ac
##medi
metta
##ERS
##estino
900
colpire
scuro
##uela
Classi
indicata
##ink
26.
imbo
tecnologica
Lew
lacri
East
6â€“
##siva
##000,
orizzontale
Rica
Bruno
distante
##feo
sensibilitÃ 
##orks
##ICE
##derson
spettro
complessa
laser
fornita
cristallo
##resto
##ela
registri
tropica
##guay
Hal
sviluppata
##chan
tengono
Guido
significativi
Sui
Biblioteca
##ggiornamento
Torno
28.
##conti
63
raggruppa
##comuni
ginocchio
##Nel
turco
##mettono
##nati
##ombo
spalla
provocato
gastron
moduli
PI
##ssuali
##vuo
esposto
##IGLIO
##weet
Macchina
lupo
rilevare
prevedono
##rum
82
Ries
Jacqu
droghe
##ggimento
##ense
##isizione
investitori
ucciderlo
##plice
cav
2018.
miglioramenti
aiutarci
##cerÃ 
debi
##ov
##Fo
STR
Controlla
Indica
vincitori
fissazione
##guaglianza
##tÃ¡
Ordine
Press
ripeti
repubbli
##ciclo
##zine
smalti
##elemento
##tain
insoli
amministrativi
##gela
grossi
##porto
tossico
##Gu
Wilson
tagliato
Possono
sculture
Sfor
tocco
ferroviario
##bbazia
##emi
ALL
Quad
concrete
##rami
grandezza
Resp
##pire
##vore
newsletter
Comuni
eso
Campeggio
affreschi
torri
##bell
indesiderati
privo
critici
garantito
##pus
fos
smart
##kan
dazio
Oil
pubblicare
Russ
pollo
merce
##UD
addio
Tasse
pannelli
sposare
deputato
chiederti
RIS
Rossi
##guo
Ungheria
esplorare
commissioni
transe
inteso
sanitari
Cose
ascoltato
##ganda
Andrew
##wei
Teresa
##pprima
soglia
venduti
Alexander
##carsi
terroristi
vicine
segreta
##cosa
autonomo
Giustizia
##gnante
Scommetto
beneficiari
suici
sigla
aggressi
Beth
Dannazione
##assemblea
##los
avvenimenti
##finito
Marie
riportare
asciu
mensile
collezioni
##pis
difetto
pensava
##lite
rettan
##pace
SO
undici
Hans
palestin
differente
armati
Flash
ricorrere
179
assemb
##citi
adempi
grafico
##gram
seri
esercizi
Terme
##ggiorno
riservate
robot
lettori
Davis
risca
##hof
chiedono
##esplosione
97
purchÃ©
pianoforte
##Oh
coe
##ccate
##Mol
27.
##eventuale
romani
Essere
qualificazione
##zone
vent
cocco
Voleva
Uso
novanta
Trini
##quio
Manda
telaio
adoro
lampada
dinastia
tragedia
dirtelo
contingente
profitto
concezione
##nell
##ingi
chiarire
##urra
spinto
Us
##pali
avvocati
##tensili
conquistare
GB
romp
10/10
nomen
##mmigrazione
##OTT
approssima
##ITO
Esse
Georgia
##archia
scende
OR
##utilizzazione
##avvio
##veg
susci
continuitÃ 
dirette
martedÃ¬
Link
##mont
andro
leg
##bare
ridicolo
Lisa
Dimensione
mix
auguro
sportiva
##impressione
Â·
costretti
monumenti
Hun
sceglie
andremo
diagnosi
##fficiale
GmbH
Archi
Giuda
connesse
##contin
##mismo
Privacy
raccontato
##cks
sof
certificati
fammi
Marino
indicate
tossici
##Ungheria
rotazione
Best
##Dis
##incre
Filipp
pagh
stup
preten
pitto
suggerisce
##quanto
Cassa
appassionati
ricetta
scre
comunic
bloccato
Dieci
pratico
##avrei
elaborazione
rovinato
parche
stro
migra
raccontare
Raccomanda
##worth
Lily
##etu
sbagli
affidata
##ual
Zelanda
affermare
Perugia
GEN
Diego
Episo
Vincenzo
##ampliamento
diversamente
avanzate
##sten
Considera
volevano
intratten
piaceva
telefonata
Rie
stanco
Piemonte
Autore
riportate
tavole
congratu
celeste
Parma
Como
considerazioni
##dad
##ursione
Ingle
consultivo
trap
semplicitÃ 
##oceano
riv
home
criterio
Assicura
gal
sterline
##logazione
2014.
segnato
Central
economie
pensiamo
procede
CV
##mmelo
Orgasmo
basate
1971
67
rifiutato
2003.
integrare
carri
##rich
insegnare
protegger
0.
Hay
venite
spedizioni
##dimens
fortezza
esposi
##Tube
Percio
fr
permettendo
diva
American
rifugiati
Scaricare
depressione
uscite
##:2
bici
tradurre
##pido
Versione
itinera
Kh
##avviso
rispettive
primaria
Howard
##ciatore
17.
##piano
avventura
##binetto
sportivi
Pace
##velli
Pens
iniziali
inverno
terremoto
##PO
##ranto
Young
##osserva
attrezzata
##fesa
##elezione
Modello
prodotte
unisce
sovrapp
##istema
globali
Charlotte
otta
attrazioni
##Acqu
Lava
UnitÃ 
##uss
##titoli
accon
servita
milli
assomi
invisi
General
tono
risultare
giornalisti
##fice
Siediti
Tokyo
muoversi
attin
Risultati
toller
sopportare
##ury
3)
istituzionali
prendermi
##EUR
Enter
Bernard
andarci
Rossa
pregare
Miami
senz
##-01
Azienda
volesse
adolescenti
Victoria
Stella
live
art
ammesso
##tness
salita
##.),
asilo
giunge
br
79
Cole
Punti
copre
funerale
passaggi
##armacie
Domenico
Vie
tenga
81
smettila
complicato
Affi
cornice
##guerra
strati
galle
portate
##piti
Camer
discesa
##00.
tempesta
Â»Â»
119
rivedere
Statistica
curato
pericolosa
guardato
Lucia
id
##allery
##raglio
File
Barbara
dira
inco
Christian
##dea
##mista
##cellare
eleganti
##allora
Insta
continuerÃ 
WiFi
prestare
isla
Fire
Popo
##glieria
##pertorio
Giord
##autunno
Software
SI
##atten
iscritti
Senato
intendono
Impa
Kit
##ssido
semia
##lian
VIII
Quell
low
Fia
Giulio
assicurarsi
giacca
lasciati
occupano
##oth
Chiedo
##Arte
##mentati
Forte
ISO
provenienza
vorrÃ 
indirizzi
##/80
abbiate
Fio
Canti
tagliare
logis
##gusto
74
0,00
##/7
##vana
teste
NE
lavanderia
innanzitutto
raddo
concetti
selezionati
##orri
ari
##bete
Football
ragazzina
agra
fucile
CHE
Allen
pensarci
##indere
provoca
##rane
##unanimitÃ 
##visti
borghe
##dison
Federa
esteso
##med
DIS
Mangia
##oru
Lucca
tin
compone
##tecno
##tish
##moder
FranÃ§ais
Stanziamenti
mentendo
prendiamo
catturato
costumi
mostre
attaccare
Fol
Albert
contenitore
insa
comunione
ultimamente
defici
seppelli
soggiorna
visualizzazione
##erno
##disse
masturbazione
##-15
lanciare
vicende
Kan
muto
elettriche
gravemente
##urgenza
Sum
##/3
suicidio
##vard
nudo
pescatori
aggiuntivi
Gh
Blog
raramente
cono
sanitario
cessa
iniziarono
##inserimento
distrutta
minime
cantina
sensori
interven
vende
##sservato
abro
elettronici
borse
Carter
divenuto
alz
jo
1.4
pubblicÃ²
diamo
finanze
##MC
Ltd
Baviera
Relazioni
insegnamento
##disi
CONSIGLIO
##guono
##urus
danneggiato
##Man
1968
##untain
##set
depre
Trento
ricompensa
##Lu
##apostolo
esecutivo
troveremo
corti
##tteri
##Ta
olimpici
padri
autun
dirgli
Chrome
Moto
fogli
litur
up
Dri
giurisdizione
bionda
1981,
##vella
##omonimo
Soph
consegnato
esauri
tantissimo
flussi
##unda
dovute
Ã 
##umerevoli
occor
nozione
funzionale
permetterÃ 
tematiche
Vecchio
Bagno
Meno
NAS
atleti
timore
serviva
condivisione
aboli
Protocollo
liberare
quadrato
cassaforte
combustibile
installazione
Mace
ispirazione
Margh
festi
commedia
tipologia
##zar
EUROPEE
inganna
volontaria
Stava
##cinque
##aggiunta
##otta
##ficante
Junior
Brescia
Troppo
Suppon
Sean
rapina
jazz
Kelly
dirvi
Shel
salone
interfer
Bai
Ton
sping
obbligo
##attore
##dienza
Aprile
nascosta
1982,
FES
##errore
##ziani
Serbia
apprezzato
Nego
riportata
##ppoggio
##entor
stronzate
Der
sistemazioni
riparare
Zu
##zionista
riprende
##anime
##urocra
##Jo
##tarla
Giardino
##attrice
Colazione
##cena
##Isola
DLL
##amica
valu
##olini
collettiva
dosaggio
##troni
splendido
abitazioni
sostanziale
Materiale
##zzeria
propon
fermi
Lucy
Mercato
fallito
Duomo
tornati
tentare
Bruce
##rastruttura
##dos
Ottobre
##avanguardia
operai
Napoleone
##acquisizione
meriti
##gers
##ficie
festeggiare
##onamento
Business
Georg
risarci
##san
##====
compensazione
statali
fotografica
##ARIO
pugno
cannoni
##attivo
1,5
Gun
pazienza
Ascoltami
inibi
##secon
coloni
Ligu
virtuale
volessi
getta
dritto
##anner
gradualmente
Relatore
##asta
Inserisci
2002.
##cciolo
Pubbli
Struttura
ritratto
Scher
COR
versi
##agriturismo
affrontato
Maga
2001.
bizanti
##duca
laterale
##att
Aposto
(16
iniziano
##bino
Jord
asteroide
schede
stabil
Resort
apparire
Attraverso
corda
##/4
comandi
Ski
##cardo
desiderano
##/100
Martino
povera
attende
##inge
Uti
tolto
Togli
Desidero
adeguati
##ermi
bisco
##ETT
##utista
Â¡
Miller
situati
improvvisamente
chat
pomo
Doc
##istÃ²
##betta
Inte
Commenti
ingius
collegata
Ky
Savo
(15
Nulla
pannello
10.000
positive
svizzero
metaboli
Harvey
Cami
colpisce
cum
deU
into
##ttezza
Jerry
REGOL
##ppy
##fere
calcis
##stino
riflette
Capri
cerco
rendimento
##enorme
##ccaggio
raro
##merÃ 
87
##haus
ascensore
appartengono
Download
Causa
magistra
disca
coinvolgere
Life
Categorie
Tol
Visita
saluta
Adige
##indica
plasma
abita
##dervi
Standard
##chere
giovanili
solari
imporre
##Ora
##bury
Corri
considerevole
qualifiche
Sk
Cile
nasconde
tedesche
Sass
BR
attenta
obbligatoria
cost
##ttiche
domici
Disney
rest
umili
##trati
successione
USB
disputato
sana
Vegas
variazione
testimonianze
Rome
buffet
depositi
Giugno
eseguita
Karl
stabilimenti
Thea
affetti
##quali
lasciar
delibera
quaranta
Society
prosegue
distinzione
tasto
insulina
insomma
identificato
Castle
associata
##ortatori
Tecno
capitoli
##mun
Fle
##erate
decine
2016,
allu
Inizialmente
patate
andrebbe
degus
##tonio
cieco
rivestimento
permetta
verificato
##ANT
comunista
santuario
Corso
intese
System
Biglietti
esor
##cemia
##istituto
##MENTO
AGR
##GR
rispose
rimozione
medesima
Gordon
Î’
##esel
aiutando
sommer
bacia
nomenclatura
assegnati
fabbric
stabilita
posteriori
provocare
prelievo
burocra
##ronta
accessibili
Caff
ipoti
Quelle
etiche
(+
scaric
##donesia
proviene
fumetti
pacchetti
dirigenti
immediata
Vinci
preco
retrib
ritengono
CL
Stelle
Addio
sorpreso
##nik
lento
##hou
Azz
##carbu
uccidermi
settimanale
##ecli
Wolf
scozz
##ska
rimpia
marittimo
##governa
##oney
##tandosi
##Script
rus
doloro
urbana
motocic
##lf
##invasione
Formazione
##azz
##liche
soddisfacente
vicepresidente
##"!
verte
Rete
##devole
serva
macchinari
Yu
ralle
Annie
interru
comparsa
rubrica
motivazione
biologica
sorriso
aiuterÃ 
##gruppo
1979,
Gary
norveg
Accessori
##cil
spavento
cieli
lavorava
Post
##cm
Monta
Protezione
Esattamente
giunse
informare
##asi
http
elencati
##lisse
##TML
averne
fossimo
rimor
##hol
##ddove
##cs
20%
##aming
registrata
sbaglia
(9
criminalitÃ 
incol
coordinate
##trino
teme
Novembre
##minio
Litu
##tteria
Stron
ceca
somministrato
##sima
Esiste
innumerevoli
Terzo
mesti
Inizio
registrazioni
Comincia
##namento
##lands
attribuito
Cattolica
catturare
Lettera
##odore
##fet
##Opera
prevedeva
telecamera
##Ara
##diocesi
Agli
Cattedrale
sentite
Apple
##dicesima
contanti
pubblicate
##ttono
Wei
sem
lasciano
immediato
alco
Jere
prigioniero
mill
Michel
UA
##ppertutto
infezioni
collegate
reception
raccomandato
negativa
##NC
Lucas
Dovevo
maledizione
natale
##cista
Faro
##lavoro
##opposizione
##stano
Delle
Classic
##visore
##BS
giung
febbre
##gena
Vicino
##UG
Fox
##immissione
richiedi
regolazione
blocchi
sil
Nathan
Amanda
##magne
turni
semestre
CAM
Fen
##teche
Reale
1969
feriti
##immigrazione
pse
##mentazioni
1967
nati
dirci
EP
collaboratori
Campionati
##/5
Stone
181
##mmer
bancario
prescindere
Interro
gratuite
soffitto
penetrazione
##lago
##gibili
sirin
chiusi
Brad
Distretto
aromi
trasferire
##autobus
svolgerÃ 
Ay
##list
Arrivederci
350
comportamenti
pizza
Broad
Vacanze
Baby
britannici
##,...
Thai
Caterina
datori
amante
lamp
##rdi
rivel
PL
##elettri
##ssiche
##-30
sergente
panico
reagire
inox
strega
##teci
spagnoli
Felice
rientrare
Rena
postale
peda
Compagnia
##"".
lav
SERV
Catania
Ceca
pole
Ye
racchi
##cialmente
##apprendimento
sostengono
temporaneamente
##miglia
scappato
##arresto
mediche
Eman
parlamento
potreste
tumore
accompagn
##ghanistan
cartella
##sato
congiunta
##limi
##pers
Eserci
generare
visibilitÃ 
##bach
##rera
Julia
##ggiamo
Service
baia
IM
educazione
Spencer
proiettile
costituzionale
dapprima
FI
##zzarsi
Posti
chimico
##estico
pagano
console
1.4.
Amore
romanzi
specializzati
Long
integrati
Medici
assurdo
reciproca
elico
consistente
##ingegn
curare
box
1960
Colu
declino
complessitÃ 
toccato
furto
perduto
Assistenza
periodica
##mark
ambiti
##trus
Galle
imple
formazioni
##Don
Dici
idrau
##dumping
regali
6:
##espansione
ungherese
##film
calcolare
Pair
Giorno
concomi
Lewis
intui
variabili
spu
##kg
22,
reato
polacco
##Bu
##/93
matto
Sofia
USD
prem
bisogn
Devono
##fetta
Colombia
fratel
##tismo
Little
##orologio
canadese
##sule
Interprete
compositore
##FL
ascolti
tenute
##ONU
##Quando
tirare
##IONI
crono
inietta
Vive
sesta
##pin
avvel
profu
magnifico
##sibile
Destina
provinciale
##/90
sofistica
scontati
##fil
ripetere
183
##fle
supersti
MorÃ¬
tendono
resistente
cland
Ei
han
##stal
assistito
89
PAC
squi
scru
Spiaggia
Accidenti
completata
##gor
Bambino
pompino
##stri
effettiva
peculi
rovin
cantiere
##ssel
aggiornamenti
Abi
Jessica
adeguatamente
Ricon
estendere
diviene
##ttando
##ral
concreto
12:
River
esistere
##ireless
##ssista
Sla
malati
Time
barriere
secca
Cooper
agevolare
poker
tes
edilizia
fossili
##sal
Sembri
concentrato
pel
Line
eccell
rall
muovere
dimostrano
driver
crederci
Domenica
aiutarvi
concluse
forum
##pico
##videnza
senatore
Centre
Segna
descrivere
##luso
filtro
salotto
Salo
protetta
apparentemente
organizzati
Lia
Palla
##wick
attive
malgrado
portarono
intre
##gby
##ombie
Sabato
distingue
FAQ
fiamme
correlate
Mitch
71
Zona
##.â€
pesi
##orientamento
Movimento
18.
terminato
vivente
##iaculazione
##cei
##bati
##zzanotte
19.
Calendario
Times
Hollywood
casal
rocce
##goni
##luminazione
riferito
vergogna
Domande
Chan
sacche
##verse
fibra
immigrati
football
andarmene
dann
alquanto
cassetta
colloca
##ssuale
parecchi
mutan
ira
producono
Lituania
##entitÃ 
##)"
Terry
Jordan
eccezionali
percio
Adoro
documentario
##gatori
Cinema
##ail
pugna
vetture
Stasera
concessa
202
risalente
Techno
mettersi
capita
Kara
agisce
cintura
spettatori
##anile
adulto
##mettendo
batterie
uniche
prenderti
climati
capite
##how
Rey
avan
riconosciuti
trama
Wall
laggiÃ¹
Karen
parlava
poca
Conosce
Uomo
##put
10:
laggiu
##onsor
adattamento
irrego
##UP
1919
##dolo
espresse
##Sal
##regione
ceduto
indagine
Stephen
pieni
sostituita
qualificata
Ker
sli
istituto
##ESI
subÃ¬
Ritengo
##boy
stiva
Benvenuto
Nuovi
##informazioni
garantiscono
permanenza
sla
longi
piaccia
Crea
::
code
ottenuta
##4).
Lazio
##borg
cartone
##ficate
carto
ubriaco
fragi
prescrizioni
Articoli
Lic
vedermi
##polis
usufr
Gennaio
costretta
##sas
##quet
##LEGATO
##Alle
20.
##uria
incendio
##Servi
innovative
solido
volante
punizione
Frie
odore
Guest
##mena
##essa
conviene
ugualmente
isolati
calza
orologi
cilindri
immagina
##inano
##-18
##cula
adia
Stefan
Mura
##down
Awards
##GB
zoo
labbra
solista
Emilia
consultazioni
##INO
Dick
##dopera
##lins
dirige
collaborato
conquistato
dettagliata
##appoggio
esista
nere
allegati
prenderlo
opposizione
1999.
##bone
##mbur
##onautica
##dll
2,5
contrari
provvisorio
##stazione
polmoni
2016.
Ciasc
##yon
##Australia
##affi
tenda
cerebra
Bosnia
##pti
Slovacchia
preziosi
tracciato
##tics
Preferi
brand
contribuiscono
successore
Mill
dappertutto
alp
raggiungendo
##onsa
##ulsione
##deremo
varianti
compatibili
trasferimenti
##ullo
Cancella
calci
intrappo
battere
##argli
deco
creativitÃ 
tornando
Garda
##giano
stanca
romantico
succedera
catene
licenze
amano
Dolomiti
##mmia
1/2
mentire
Detective
Andra
1978,
Fan
Libera
##rolo
Roman
entri
pioni
Casino
attirare
raccogli
debolezza
tazza
##alth
coa
decorazioni
accons
statue
variante
formulazione
sangui
Last
trasferita
richiama
##roso
COS
misurazione
Navi
bilaterali
affare
AS
sperimentale
JavaScript
1977,
##avventura
##rebbero
##Gio
105
fisici
menzionato
##Ã¶r
Meri
giudicare
Hor
##caldamento
quartieri
Vendita
piastre
##eting
rari
SH
Bona
Punto
##lti
Lom
Elli
giornaliere
MA
entrati
inclinata
Tomma
Colon
Cristina
investire
centimetri
suggeriamo
31.
Blan
##posi
coltivazione
Claudio
clausola
##ciate
vela
##fie
Venti
utensili
##fare
##intento
stipen
soddisfatto
Hitler
sposati
diventati
incontrano
cresciuta
respinto
Schi
##solo
biancheria
celebrare
madri
quattor
##mala
##xt
Odio
monti
##archi
abusi
replica
destinazioni
##loe
##dante
##tea
##ktop
ebraica
circostante
potÃ©
finiti
parchi
legislativa
basilica
Olivia
cattivi
raccom
cerchio
calcolato
Evi
Shan
baller
##gnes
fastidio
##tereo
negoziato
impostazioni
bell
irra
Mad
striscia
##nicia
##cciata
##lee
Base
lenti
##rance
##cana
dichiarare
trauma
Institu
remo
sosta
sborrata
miscela
budget
ripercussioni
pattu
licenziato
benedizione
##erek
separata
##SO
Valencia
Nar
pericoli
ripuli
appaiono
##ompati
accelerare
contava
piattaforme
prenotato
PT
insegnamenti
visitato
##tempo
sveglio
gustare
attendere
2017,
##Ass
##Est
divinitÃ 
Ormai
barra
sfuma
Immobili
##Er
acquisire
##hel
(*
evidenziato
federali
Hil
cancellare
obbe
presupp
scoppia
##fina
Messaggio
accompagnata
##ssan
Night
soggette
fallo
##lue
piene
colpita
ricordano
##ffanculo
soppressione
tirato
Quei
Cather
Mobile
combinata
diparti
avanzato
tabelle
##liani
2.2
Paradiso
Profession
Riguardo
giunti
cente
asciugacapelli
migranti
contadini
escludere
ricevono
##ellini
##BO
riusciamo
##ghero
##appare
##miere
dimissioni
misericordia
nole
Soprattutto
desiderato
abbigliamento
##discono
##bama
Fermi
pastorale
spostare
infiamma
##ppare
pastore
##'1
##meri
##quota
seminari
##Ã¤n
demoli
bombe
debiti
Margherita
consulente
177
gliel
acquisito
##COR
concorrente
CC
Var
cast
Scoperto
incar
sospettato
impar
##sservatorio
##biche
richiedente
pulire
muscoli
##elto
gestisce
Ferdinando
##llina
##ensori
Giulia
armonia
##eroe
orientali
finlandese
foca
raggiungibile
sincero
##hara
Sue
Fort
##bene
gang
divenire
slot
##ELLA
Stori
##unity
arabo
fottu
Annulla
Latina
dialetto
freschi
##cas
(17
##attre
crona
tradimento
##PC
##orchestra
##morra
His
divino
Olanda
rose
PUBBL
Scienze
##ranze
Info
troia
##/94
rilevanza
incentra
separato
Raffa
profeta
residente
Reno
secondaria
radicale
dotto
consu
tardo
Altezza
attrezzi
adatti
Ian
amm
##ror
esemplare
##card
##case
integrale
barre
##ving
Angela
Febbraio
Larry
diffuse
condivide
##invito
antidumping
##larmi
promesse
assunse
uccello
tornei
Marshall
fian
##maggio
##bru
##misti
Fatti
decisionale
greci
##Ottimo
Dicono
occuparsi
sconosciuto
##TRO
##rough
##utique
integrante
vegetazione
ridotti
##psia
WW
()
##rene
prendersi
modificati
##giamo
##2-
##ndosi
Giudi
==*
4.2
Essendo
##sic
dammi
follia
Libano
Vale
##von
grosse
celebrazione
respirare
dettagliate
##stoviglie
interrompere
margini
consumi
teorie
cattolico
##3-
ebre
Fermati
tariff
tradito
get
segnatamente
##rana
sinc
sindrome
{\
COL
##infrastruttura
Tas
magli
manovra
##entricitÃ 
look
Piccolo
musicista
demoni
fumare
manodopera
facilitÃ 
gatti
##ONE
pazzi
attraente
distinguere
mettiamo
##Esp
tag
##pirazione
Barcel
Kyle
avro
fermati
costruite
##anese
Distanza
##dium
Simone
climatici
acqui
austriaco
Atta
seguite
Fiori
inquie
conduzione
classificata
##ceania
liquidi
soffrire
preghiere
redazione
##Ã¨s
182
impedisce
unito
##metterla
contraenti
glori
Bron
risorsa
Isola
contrapp
veterinario
stimolare
##urn
Sergio
convinzione
25,
prema
tempesti
##Ã©s
cinematografica
affetto
societa
Å 
pillole
BenchÃ©
##07.
##mondo
trazione
##AutoritÃ 
sentirsi
##mella
Game
##rindisi
Maggie
vocazione
Glen
##view
parallelo
##gol
illuminazione
chiamarmi
marittima
Prece
discografica
opposto
andarcene
Dalle
lana
pecore
[2
telefonino
##colli
enzi
minera
corrispondono
quantitativo
marrone
##ghetto
Inglese
Dante
specializzato
imbara
domestico
##/96
Desideri
IND
##pefa
stemma
cerchiamo
Assemblea
aspettano
Indietro
amplia
##ladel
##rad
cortesia
diventerÃ 
evitando
otter
cing
Marzo
attraversare
Light
rompere
inasp
imbarazz
condiviso
Monica
svizzera
##km
abitudini
##fich
Vla
British
stretti
Rocca
cancellazione
spaventato
##pea
portafoglio
rinnovato
colli
##VI
175
zampe
variano
1966
Rapporto
mosse
Instant
autonomia
Rispar
Prefer
Rebecca
riuscendo
dovessi
speranze
sussidiarietÃ 
marino
Telefono
controllati
##ettero
##enos
milan
investito
tessile
steri
perpet
calcola
flash
Conci
q
1976,
##sula
telefoni
Linux
Sissi
previsione
EL
##wski
Boe
Bergamo
mercanti
scontri
Partner
barbecue
##veni
preoccupi
Soggiorno
Gestione
ignora
vedova
lac
Corporation
osc
becco
dichiarÃ²
Riccardo
infil
##alleanza
(5)
colloquio
##tualitÃ 
facciano
Catherine
##coln
##astri
Booking
1975,
##nold
caritÃ 
(7
radiazioni
mora
Consigli
risparmi
facesse
estero
1945
##isia
riposare
insufficienza
Reggio
##assunzione
complementare
##zzoli
regolamentari
pecca
##fficienti
##carlo
variare
interpreta
citata
Hostel
Daniele
ritardi
omose
vibra
##orte
casinÃ²
Risorse
##icazione
##uit
##3).
##max
##cismo
##ccolma
detenuti
##ery
Elec
magico
collettivo
angelo
Dicembre
Bentor
camicia
tranquillitÃ 
magnifica
agricoltura
1988,
bimbi
stock
Nin
##posta
semplificazione
Vacanza
espressamente
agio
indispensabili
Mun
##ratura
##ttici
efficacemente
minerale
avversari
ricevi
##bini
Network
Fitz
accetti
##Ã§o
##cket
##ettive
Matthe
paesaggi
##oke
trasportare
volontario
##entieri
fascicolo
â€™.
Jacques
##indicazione
##ston
Campa
##impostazione
##intelligenza
presento
##darsi
170
##teriali
fuso
apporta
meccanico
avrÃ²
andre
circondata
Stri
##sol
separate
Novecento
##todo
biblio
##POS
piombo
##luo
conservati
associate
##TURA
scelti
fanteria
##1998
Cale
rappresentati
Gray
uccidendo
Vel
Fax
emissione
profonde
svolti
##ila
natali
informati
bestiame
battesimo
Valentino
eventuale
Avresti
aumentata
estesa
Aggiungere
##lene
sagge
Dimensioni
inquad
indeboli
(8
Date
ordinare
##ches
POLIT
Olimpiadi
##ostino
inaugurato
progettata
Pay
lavatrice
##teau
banco
lordo
convenzioni
##SÃ¬
Problemi
figa
##stat
##eclittica
effettua
camino
mezzanotte
fornendo
Poker
(12
innamorata
Scuole
##star
Lauren
religioni
divisioni
libere
##cons
darsi
sindacati
States
colpiti
Polo
Ricordo
ki
frigo
Brun
gom
##acido
delicato
dollaro
ibri
correlati
avventure
##lation
##resco
##Cli
maiale
##andamento
valere
Bry
porzione
potessero
gabbia
sconfiggere
Luce
Guinea
delegato
vedrai
##andone
Derek
contingenti
Jersey
178
limitate
##menda
inventato
istituita
##cion
sospetti
reati
inseriti
Marte
Pino
prossime
##sore
##infezione
Vengo
sporco
Anth
Contempo
##CN
spina
riferiscono
caute
circuiti
tramonto
Cat
archivi
energetiche
##cktail
darle
domina
atmosfera
Good
impulso
1998.
allarme
##bbs
Pechino
suda
soffo
succederÃ 
OK
##arro
eserciti
Queen
Feli
##inu
fic
intanto
91/
2-
colonia
iniziando
preparando
PDF
eu
Savoia
avente
aggiu
##ical
##orgere
immen
diffondere
mes
##autostrada
my
Supre
Amministrazione
Albergo
##cti
creativo
microonde
Song
stel
##utiche
##New
##+2
rivolgersi
Ox
guardate
Fos
darci
etc
Stoccolma
temo
##tunio
Mina
risoluzioni
Ath
sparire
luminoso
dovreste
##chetti
Ultimi
stimato
giudiziaria
##1996
Grant
##gatorio
indimentica
introdotta
validi
astron
##operatore
portatile
sauna
spinge
##trono
##uf
##roe
sfon
dirai
Silen
GMT
1.3.1
##pul
contemporaneo
lussu
24.
Presentazione
potenzialmente
Silver
porteranno
Kei
ascoltando
sorprendente
##1),
##town
##Ã¼n
sy
conclusa
ascoltami
salvataggio
faresti
Bank
Turismo
movi
##massaggio
fanci
Maj
limitazione
nazionalitÃ 
Association
Cerchi
placebo
riga
##fani
##derli
significative
importazione
##Otto
##latino
confuso
videogioco
##*"
liberato
##accento
ALLEGATO
accadere
contabile
Aus
##ggiatore
Pana
##FI
##sis
iPhone
##TS
tappeto
##eccentricitÃ 
rosse
scrivendo
portarlo
fabbiso
apportare
riservati
Ebbene
##velo
##Accordo
(0
##giato
mela
lacrime
##END
coca
inserendo
Dro
Spera
Statistiche
persi
Agenzia
##FO
Old
polveri
cellulari
##dela
TER
##inismo
entrando
##drÃ 
senta
##presentata
frammenti
##EO
disposta
termo
##ominato
ampi
fissi
Caroline
debbono
musulmani
##ziati
Ivan
rinnovo
##OLOG
##UTO
valutato
mediterranea
Lincoln
Western
##ERI
Fiera
praticare
##lov
##%).
##zolo
muscolare
Jacob
AGRICOL
passano
Wy
DAL
sentimento
conoscerti
Compren
onesta
accenna
##alloggio
April
##pool
##animale
Vengono
Susan
individuo
##valli
bilancia
delu
##ssuta
aiutano
vaga
##unga
##race
â€º
Aerop
accrescere
##Th
emerge
Moder
##EGLI
muri
inviati
coglione
normativo
semiasse
Hotels
Strasburgo
##COL
balne
farli
(10
misurare
suba
##esie
1.6
conseguito
modelle
und
invo
Filippine
decidono
##oliva
succo
troppi
scoperte
Sociali
diario
previa
cruciale
##TRI
comitati
compia
Obiettivo
##All
concreta
tif
ritrovato
aggiornate
Î¼
accoglienza
Entro
Puglia
Clin
spettacolare
##cean
2017.
esau
##talini
##archivio
americane
controversie
Water
vedremo
Abby
##tiro
autorizzata
Sarai
delimi
seguaci
Ambiente
biciclette
comportano
ingegneri
andrai
##attiva
Taiwan
aprono
suddiviso
##eritÃ 
1965
risiede
protegge
##kar
Margare
nient
sponsor
scalo
aspettato
tipologie
ED
Ava
contenuta
torrente
invernale
sceneggiatura
solenne
##FS
diminuire
infli
navata
Osserva
pessimo
Sydney
decisivo
pota
WC
##ziana
##Europe
vicinanza
##OTTO
##guÃ¬
famose
single
ple
ladro
eletti
rimborsa
##trone
Force
inviata
indipendenza
##erebbero
Plus
rivolte
audiovisi
Ultimo
1943
vorra
##genito
Malgrado
Mah
Miche
##-16
##IDS
##inista
##fati
Commi
frequente
##IZI
1950
prototipo
##/95
##llino
_
Maledizione
##He
cavaliere
##5,00
gelato
##cao
BM
##mph
boni
89/
entrano
dicio
Canale
intensitÃ 
commission
smartphone
Giro
isolato
Passe
aumenti
casella
CA
Guard
##alfa
traguardo
specificamente
attenti
Macedonia
Division
odi
filtri
ostacolo
unione
Istituto
coincidenza
armonizzazione
SUL
perfezione
##rrÃ 
appe
Back
Pisto
##rish
aiutarlo
ADOTT
##ww
Comm
##conne
##zionari
vettori
sovranitÃ 
lasciarmi
sfuggire
indice
Diverti
toll
funzionano
Riscaldamento
##-1,
##ggianti
palazzi
##ddistin
precoce
DC
Livorno
Maurizio
Ritor
apprendimento
Quin
frontale
##Yo
REGOLAMENTO
##ashi
Fara
##grande
semifinale
##udienza
Avenue
##gionali
attrice
intelligenti
(32
[1]
stupefa
servo
riducendo
##erla
Recu
Up
Fidati
Belli
rilassarsi
EM
chili
Supporto
balla
##/12
##brigati
imbarca
discorsi
##war
Mali
Custo
Parker
ala
Ville
Parteci
professor
##celo
binari
Festa
##/97
##email
Fish
##"",
salvati
##1997
Pompe
trovarsi
vaccino
##lum
coppa
attacca
Anal
ridotte
interrotto
cape
ottime
salvi
abbandonata
ognuna
omogene
##locale
##ful
##sil
##omica
compressa
violazioni
chiediamo
##icino
medicine
citare
1986,
##ottica
orien
intergoverna
sottoscri
Conserva
##iler
##soprattutto
Social
caratterizza
frequentemente
temporaneo
eman
Collegamenti
vivace
ideo
innovativi
Schen
Express
ago
Commercio
marittimi
consegn
malapena
Klaus
Europeo
chilometro
Impe
##Molto
saluto
peschere
Manu
tradotto
spaccia
##feld
sapendo
scaricarlo
max
Diciamo
calibro
Responsa
1964
rallen
Ves
assicuro
tipiche
procedimenti
##omonima
Mette
percezione
##usti
cod
##amici
Intra
avessimo
Marcus
##Ger
##DS
laddove
Edo
Gene
Km
23,
DEC
Mino
##allargamento
##stina
Spos
contraddistin
idio
aggiornati
##TEN
##Star
puliti
unirsi
Diavolo
considerano
rifa
pollici
Cooperazione
Helen
cosiddetti
ricoperto
celebri
bev
parlarle
classificate
teologia
assicurato
##orgo
Cambia
cammina
biologico
laghi
angoli
eroi
##reo
##acca
adibiti
1944
Guardami
Scusatemi
constatare
11:
##cking
formalmente
##Cos
Luis
##estremitÃ 
Ak
##">
Suppongo
Elisabetta
Magn
mosa
##alizzati
##ssÃ 
inerenti
project
##ATIV
scusarmi
1985,
escluso
tutelare
alline
Tyler
##lantico
coperte
SV
##mercato
vedete
Istituzioni
convinta
artificiali
MP
Distribuito
impostare
##iezioni
Tommaso
descritta
##ople
esserne
consapevoli
##quie
##gnola
Ditalini
##unni
Carne
lire
guadagn
costituiti
Berna
eliminati
Bollettino
Beck
Zuri
spegn
##glienza
##prio
Jun
scultore
abbraccia
AI
subire
##garo
binario
83
anelli
Ehm
Cher
inso
##dÃ©
caos
Ogn
Jenny
frode
trovarla
##oo
Sento
Speriamo
##loca
1987,
QualitÃ 
##gru
condotte
##verlo
approvare
##Car
monetario
##vecchiamento
fondÃ²
compagna
adde
forniture
##cta
sgra
##interfaccia
Swa
sentivo
Lasciate
operative
rigen
difetti
Testimoni
##dell
Singa
profughi
negative
##identificazione
##inco
Cerco
contabili
facevo
##moria
##esso
3.2
straniero
##nu
lamen
frequentato
Speci
risultante
PV
Calmati
Boy
Vendi
delitto
violento
Valuta
##libri
uccise
cancelli
Koso
##ssette
Forni
ripor
##fettura
ampliare
troppe
clan
arrestare
innovativo
Your
Publi
disgusto
inaccetta
massiccio
##4-
##ldo
Moda
fissata
##MAN
Frequ
Meli
svolse
trasmette
Scritture
provvedimento
Clay
Conce
##clo
##ETTI
vaso
costoso
demografica
Tempio
##mara
Town
attraversato
esatta
ospitato
OS
evidentemente
Saranno
VenerdÃ¬
coinvolta
##2),
Buono
##affer
consegnare
sessioni
usufruire
##tipi
sottili
seleziona
sperimentazione
lavorativa
##ffra
versetto
scrittori
##orda
##TC
Impre
##ttate
ingra
identificazione
parallela
Euratom
##als
##pani
Vorre
Capisci
minoranze
Schmi
defin
##ttante
ADOTTATO
cogliere
##xon
necessita
aspettiamo
iOS
##onico
Palace
##ordinamento
operato
##tyle
##ssate
voca
##quil
percen
compilazione
##diversitÃ 
Alli
climatico
##cultura
Word
gestore
Giornata
peggiori
Vas
sentirmi
esplodere
fondamento
allenamento
tenne
##eccezione
Congregazione
consolidamento
##play
##odier
divise
maestri
##europa
accettabile
Geografia
lavorÃ²
distanze
ces
##posizione
docente
sostenuta
##duce
erbe
##Cerca
IR
ripi
Genti
Login
Ap
##ghen
##tarne
collaterali
ristrutturato
rimedia
sciogli
##ween
imposto
##ONDO
vigneti
incentivi
sentiamo
1961
elo
Agen
appoggia
brevetto
##graph
##prire
##aviazione
Comandante
##zzone
##evano
imbar
Registro
##/6
solitaria
##erte
##detevi
##oms
##llando
cranio
indagare
preziosa
CAS
precisi
attribuita
comporti
1963
utilizz
calde
sollevato
bizz
confon
Fine
Aeroporti
Sacro
Gus
##rismi
Pakistan
simu
leggeri
Labo
Carolina
sbo
McG
Leonard
Wayne
introduce
Vogliono
ripristinare
risalgono
sopporta
fondatori
rapito
costel
pavimenti
+39
##cimento
##cts
Russo
divisi
Lettonia
Pru
rocci
serpente
1946
mortale
precise
proli
scandalo
##Interna
sbir
bugie
##ATP
incontrati
LEG
continentale
Syl
datore
urbani
##fonso
Singapore
Battaglia
##equ
rispecchia
##/88
limitati
Champions
protesta
fido
##dow
potenzialitÃ 
orta
autunno
connesso
assiste
Hart
Jesse
rinasci
Scala
Season
##aggiornamento
##Mad
indiano
Mono
indovinare
inol
##Oro
darÃ²
##prietÃ 
perseguire
Raccomandazione
impic
frazioni
rassegna
Down
dirmelo
##attesa
##impo
##/2000
Adria
Fuoco
rapidi
classificato
##zoni
giustamente
liberta
chitarrista
##sur
##indice
##endum
##oshi
crip
3.1
missili
compatibilitÃ 
dormito
##canestro
##ulle
lama
rare
armata
lesioni
contrastare
Aires
##fili
##Ã©n
0,5
problematiche
##das
##/2003
Manto
##dipen
Modena
allievi
beve
##minari
rinforzi
Arg
rischiare
lasciamo
##ensione
##lusso
cuoio
isolamento
##entino
offriamo
Piero
confrontare
creano
applicati
elettricitÃ 
Asc
sviluppate
Volume
Simp
ossigeno
dile
Ultima
##prodotti
diamanti
esamin
##Roma
PRESENTE
combattuto
trattative
interessano
##Cla
magica
##ttrici
Strada
aspettavo
##busto
Gusta
Buenos
verdura
##annuncio
##UTOR
indici
Quo
Thailandia
Acco
Noleggio
##ucci
21.
repubblica
##ental
##milton
pratici
stupen
segnalare
capsule
dopoguerra
spedito
migrazione
##%),
Nik
rigore
eliminazione
sinonimo
comprendente
estivo
Sau
Effetti
Milan
Faccia
Incre
simul
separatamente
esponenti
##gma
dente
viveva
pub
##Ottocento
sentieri
circolo
riabili
##toriali
disar
evidenti
European
saggezza
Dor
Mand
Golden
##baldi
lineare
inossi
convocato
battute
##onimi
Hous
Swi
rivolge
parrocchiale
addestramento
##amin
##pienti
peste
Concilio
##invio
monaci
##umendo
##ghie
completi
dirglielo
1992.
demone
formulare
Kosovo
MS
##iamoci
##ddi
##nada
chef
Band
Diana
Vedere
sperare
serbatoio
fisio
Duca
Chiedi
##icco
Rega
salsa
##Testo
battaglie
popolaritÃ 
carichi
comprendeva
disavan
ebraico
##ole
##conote
##inente
Zero
RA
cupola
innocenti
spieg
esplicitamente
##ficÃ²
##stazioni
Copyright
##attle
infa
flacon
##Ga
vampiro
interpretare
garantendo
approfondire
29,
UR
adesi
Niko
vampiri
prestigio
Memori
istru
smetterla
Amo
pacifica
Lyn
coinvolte
Aga
your
aggiunti
##.Â»
ricevuta
##vern
Saro
frequentare
distretti
erede
##br
mondi
people
eccellenti
Em
consentendo
appuntamenti
##far
prole
##scente
##zzatori
onesto
cadaveri
terminale
##YP
##cheranno
uve
##hattan
innovazioni
appi
##lendo
##istante
graduale
##FE
accomo
eccessivo
230
Avevamo
adeguamento
##ulsi
##uild
NATO
istin
1.000
avversario
Plu
amichevole
##time
##incidenza
create
##sica
portava
County
Â£
Box
Rispetto
cambiata
##ITI
##volu
vegetale
##-17
##bet
1997.
leone
procedi
scoppio
calmo
Buonasera
Sii
##getto
##teroidi
##Dio
comoditÃ 
guadagnato
##0000
##ervano
suggerito
Imperia
gallerie
Dell
statistici
limitazioni
##bello
##assedio
abito
risarcimento
##ffin
Amen
Ascoltate
inciso
Galles
profeti
stime
Glielo
addetti
esclusa
Progetti
##drich
trasformata
dedicate
inchi
puramente
riav
soffre
garantita
##Ja
Vescovo
IMP
griglia
menzo
Bolzano
##uoli
disagio
30%
vasi
##Questa
Lake
touch
Gabriel
ka
##grafe
esamina
sigarette
inutili
##ambu
##Ann
Avi
##ziata
immuni
##alizione
sbar
Sicuramente
##Ham
##sserv
wireless
determinante
rango
sopravvissuti
##organizza
##Spa
TH
eccetto
ricarica
miniere
zombie
eppure
riuscirono
tenerlo
##/89
Wen
##GIO
Assa
##alizzato
Nizza
Emanuele
##dar
HTML
parto
decisa
diventÃ²
loc
immerso
imprig
sofferenze
##camp
Iraq
Anthony
Rand
periferia
Rus
carenza
associare
sentono
fitness
Russell
eccellenza
esposte
##emo
crociera
televisive
foro
Aaron
riciclaggio
Illustra
eseguiti
1958
CEN
baseball
##skij
creda
##wich
Linda
spostamento
1962
1996.
##ruguay
Amici
utilizzazione
Terre
Libero
direzioni
roto
proroga
Tunisia
Margaret
Vittoria
Nate
cotta
##usioni
minoranza
Galli
##Ric
##ties
Bour
1.2.
CAPITOLO
strane
Difesa
Tenente
epatica
suddivisione
incoraggia
ONG
seguÃ¬
Attento
7/8
cedere
moltiplica
governance
crollo
Lune
##ESE
combustibili
##tificato
1995.
grani
##MB
stiano
razionale
tipicamente
Dylan
Rimini
accorg
bit
##fora
Gari
vocale
conferisce
rimedio
commo
permanenti
schiera
comoda
cover
##orzio
##pelago
Salerno
##bout
Domin
tuning
##iscopale
##Vis
andranno
##lom
##foni
veleno
elementare
moltissimo
meteoro
##www
Confederazione
##glianze
##individu
crediamo
Lion
trasferirsi
radiofon
##guna
assunti
Carai
squa
##orientale
neutra
deline
imbarcazioni
SEC
##eloru
gentili
raggiungono
cancellato
fortunata
##iang
##ques
annuo
luminosa
discrimina
avanzati
Decis
concesse
sanitarie
compassione
equilibrato
Verdi
organizzate
Dona
imbarazzante
1.5
4.1
##ometro
##etteria
dimentica
consigliamo
misterioso
farina
Mid
torto
grotta
consentirÃ 
LÃ¬
riesame
profitti
riuscivo
estiva
discipline
Avrebbe
conosceva
dipendono
Motor
terrestri
Henri
Numer
##restling
poterlo
92-77
##derando
Jess
ride
bia
sapori
cardiaco
(14
redi
Philip
pianura
formulato
##carono
viventi
transazioni
FIN
citati
Garden
traduzioni
incrementare
##TV
##sport
visiva
divennero
pneumatici
##em
Pedro
accredi
ricambio
Sov
marine
mucchio
designato
pelo
assisti
schemi
contemporanei
##sho
##rentino
guide
ritirata
Lind
Appare
##lai
massaggio
raggiunta
##niche
##andro
vuota
PossibilitÃ 
1994.
##Anno
MERC
mitra
nascosti
peti
rilassante
Zurigo
##ining
cardio
##sky
##dich
mandati
complesse
##vido
##9,00
gialla
##-198
Linea
guadagno
dovevi
Hot
scol
Walker
##/98
Dubai
Chianti
infanti
guarni
risultavano
percentuali
deterio
Ministri
Kno
Care
##impren
##XI
##head
##zuela
1940
miseria
##sea
grato
##Ucraina
divertenti
relatrice
distintivo
tensioni
sottovoce
##CL
Prof
generatore
POLITICA
##viale
##mpimento
smaltimento
siner
##VER
siringa
dibattiti
trovarmi
##.07.
##marono
radice
##Ris
##veicoli
nn
brevetti
solidi
Plaza
Periodo
prenderla
##wald
##Pu
cocktail
2018,
profili
indicazione
Serra
fauna
nascere
##/01
titolari
##zionalizzazione
Lingue
Contenuto
##Hi
##sus
##mari
Mir
vernicia
##rabile
##rimento
Cuore
interiore
spazzatura
rivendica
##5.000
mass
##europe
ol
accada
##fio
accumula
risalire
Digli
##orkshop
Prendo
Cielo
ace
vario
##sono
##mbasciata
UNA
##quattro
Taglia
campanile
privilegio
LAV
spun
miti
Citta
rintraccia
Usci
##/11
rara
##pur
MOD
##giani
preoccuparsi
##utici
Panora
orchestra
##1995
territoriali
##babile
parassi
gusti
##/87
duplice
##orbi
malata
soddisfatti
espressioni
Tecnica
##itÃ 
##ziare
dispon
Collezione
##UTI
domicilio
concentrarsi
Levi
sostenitori
##ssamento
vedendo
trasferiti
Schengen
##pos
appunti
liste
impera
Joan
usciti
Store
valorizzazione
pietÃ 
Messina
straniere
##guel
##/2004
insiste
Rappresen
raggiunti
Conver
universitario
Pelle
idromassaggio
##EAOG
invisibile
succ
3-
Jeremy
aumentando
##ARIA
calcoli
segreteria
##sette
banchi
##biettivi
Lang
##Bar
norvegese
soggiorni
Contattato
chiedevo
stampato
##bai
Forma
stereo
Scen
seme
Macchine
disparitÃ 
##Aquila
imbotti
cfr
botan
doni
Manhattan
Carica
AB
##rosa
pozzo
ortaggi
ricezione
cristianesimo
##interrogazione
Aut
musical
##DC
saggi
oscura
catali
duri
##ESCO
Manchester
Sembrava
Bia
muscolo
vigenti
acconten
##fro
##lah
sdra
##gorit
ispira
influenzato
Disco
Thi
##incro
peli
##enamento
##untamento
##kel
Asse
Rou
genetica
specialisti
Medioevo
rinvio
##tsu
##rite
##EDI
Misure
Franz
bloccare
Kal
duramente
Azione
anteriori
spaventata
sottoval
220
pernottamento
istan
Procura
##Par
##-14
produttiva
tecnologici
frasi
sman
lasciarlo
sottoposta
incredibilmente
##essi
##PG
accoppia
round
Otti
Lucio
funghi
matrimoni
sottos
Sli
flessibili
dirÃ 
fottuto
raffinato
Pavia
navetta
##uccio
Fabri
suffra
AutoritÃ 
raddoppia
soggetta
consid
Cry
ritenere
confessione
scacchi
##rerebbe
incompati
rifiutare
Jonathan
##Americ
preoccupar
supplemento
Kon
##ae
##haw
cuci
##amicizia
##rant
##rosi
Gioco
spendere
confermata
cica
##2).
fatturato
##viÄ
lomb
Collegio
estratti
protocolli
UEFA
##montare
contenitori
##inden
brun
apparso
##dove
volati
Bara
ragion
anticipato
##zan
(30
Mora
##fazione
tornerÃ 
##ulum
squali
Tranquillo
desiderate
13:
1500
gestita
##tratto
preferisce
##ENO
##quale
deficit
##osservazione
Carol
ostaco
batteri
uscendo
Borg
Applica
YouTube
sottomar
esclusione
introduzione
Hamilton
Dipen
pubblicamente
repertorio
##dith
##trata
escluse
istante
Ucraina
conseguimento
Todd
##tarsi
degra
##tuoso
Costi
tavoli
bande
cosme
saltato
riconqu
##illuminazione
Caraibi
cavalieri
##ciplina
anziano
consigliato
transeurope
##gestione
##etano
shock
##Ori
Kati
rilasciata
lapi
assegnata
architetti
cattive
ampliamento
approvati
salvaguarda
GPS
##fisso
Vicenza
derivato
##bite
Copena
generato
##sala
interi
schiaccia
visse
unire
vetta
bovine
puzza
display
##berto
##hon
##ev
##atteggiamento
troveranno
potevi
ines
qualificati
##rangia
##produzione
spiriti
Anderson
confortevoli
##pimento
Corona
intraprese
matrice
##cilla
democratici
testimoniare
Luogo
sec
1984,
saldo
fabbisogno
DIR
##osia
##range
smette
giustificare
##zego
esca
infra
progettati
Catalogo
Guy
Rispondi
salutare
##uoghi
rettangolare
cortese
progressiva
CHF
affli
giocÃ²
Babil
Ripa
cercava
Superficie
Pad
ortodo
##"*
domestica
televisivi
INDI
Risposta
Pablo
spostato
##inflazione
Copenaghen
caratteristico
miniera
##zoto
sorgenti
##ssy
corde
omonimo
epo
mattoni
Work
sperma
efficienti
rimanendo
Colonia
colture
Prenotazione
##ugoslavia
razzismo
Agosto
Perdona
##Ber
Annunci
Gallery
##inno
biodiversitÃ 
28,
Mons
vietato
eravate
biscotti
##6%
##eros
##italiano
##tonomia
intensa
versante
piÃº
Santiago
informatica
lampade
campana
freno
mentali
pregiudizio
Versa
frequenze
Calma
trascura
affidabili
Fiat
obie
##ution
sorprende
temere
Sissignore
ombra
amministratore
Prendete
Kle
doppi
##iare
table
giuste
ya
##urando
lattiero
##utata
intimi
energetici
degno
podio
cucinare
##Hz
trasmessi
qualificazioni
nido
Alison
riesca
precisare
gironi
##OME
##esito
torniamo
Ï„
scatole
gramma
Militare
Maastri
##VA
Bartolo
acidi
diagnostica
contrassegnate
reperti
##pedini
PerÃ¹
##Fe
Lock
##edback
##entalmente
Pai
##onte
Phen
troverÃ 
rotte
funzionali
asiatico
##retti
##adeguata
ente
assassini
scansione
##pto
morali
##ospi
Organizza
Ear
profezia
mestiere
funzionario
##inanza
##ILI
Abba
scudo
##insegna
##servi
abbre
##CECA
predece
##cademy
genitore
seduti
ritirato
7:
totalitÃ 
##gorio
Vede
Molly
insufficiente
##unge
Apol
cartello
versato
##gian
arresta
cilind
sha
acquisita
@
je
##avanza
##zzle
##Eserci
cognomi
##armata
biologici
##derle
##otti
##sper
##wart
##tho
Pea
coperti
provvedere
##onali
know
ln
AndrÃ©
NÃ©
fida
morbido
verificarsi
##incon
Creatore
##taggio
##ascol
##ama
bastone
##ciatori
Timo
ÄŒ
##sina
Berlin
Penny
proprieta
Parliamo
inossidabile
Potrebbero
continuazione
Trattamenti
new
##3),
Village
mettermi
##amor
3000
produttivi
controversia
toni
elimin
trasmissioni
OG
rettifica
cercÃ²
monitorare
trent
proiettili
Key
causati
viviamo
backup
panchina
##06.
scora
##ammissione
Valley
circostanza
discendenti
causata
intendevo
CN
Dep
tram
originarie
##xter
Finn
Taxi
trasformati
##assegnazione
Augusto
Costrui
##incendio
##quadro
maledetto
##sitter
succhia
##fila
mogli
27,
Lunghezza
Episode
Mondiali
affon
Piccola
##fore
2020
Tene
descritti
vedrÃ 
Costantinopoli
##ester
supervisione
Barcelona
##.12.200
caldi
nause
##Uomo
##ceae
##attina
barriera
strisce
##eliti
arramp
##attivi
olandesi
annullare
adoper
##ternativa
##/91
Ancona
globalizzazione
portarla
cibi
30,
1993.
operatore
##POR
Owen
seguiti
BCE
##orchÃ©
##potente
cariche
Maastricht
##OMC
##rella
Alzati
rimasero
Sebastian
registrate
Made
rimuo
##carburi
Terrazza
##omer
##ulli
##luire
char
Server
urbane
Vince
mosche
##zegovina
grotte
stabilÃ¬
(6)
devozione
nutre
##bbiamente
##chet
##meria
##ride
Colori
prestato
preavviso
concordato
4)
panni
Sistemi
composizioni
Girl
negoziare
##rimere
##ctus
onora
Balcani
##ram
ripristino
sno
erotiche
##esclusi
legittimo
Ferrara
nettamente
richiamare
Innanzi
cautela
##ob
grammi
##cherÃ²
over
1914
sementi
abitabile
Alessandria
accompagnati
##allarme
parrocchie
guardo
farf
assimi
videogiochi
##inven
romantica
controllate
TAB
##-2,
Christopher
assorbimento
volentieri
Babbo
anglo
rivi
Faremo
appieno
autentico
##Aula
ricre
esposizioni
Read
DEGLI
##ricano
##umani
Hannah
derivano
pilastri
##ensis
##zionante
verdure
ritirare
deluso
lavorativi
##insedia
promuove
93/
##remmo
sapessi
portarti
passaporto
cavalleria
Prix
Ovest
violenta
Testamento
##Sh
malvagio
entusiasmo
##dello
divide
##lani
##trai
##/2005
transfer
governative
poesie
sete
Alfonso
##patia
##valente
Tennis
apposta
prenderÃ 
assumendo
1939
Square
servirÃ 
##mix
dicevo
facessi
piro
##ICAZIONE
scozzese
##curio
sparo
analogo
cucchia
superficiale
Mediatore
Selezionare
ristabili
CS
##USA
##AZIONI
grandioso
quer
Institute
esecuti
##vas
##cinio
##ferimenti
##Tex
prosperitÃ 
Walt
##mper
Lavori
stoccaggio
socie
metterti
##isp
##ortÃ²
munizioni
Riserva
presero
elettroniche
prescrizione
##ternita
cancello
##reggio
domattina
osservata
1956
##affare
arr
nic
Chur
Comun
cilie
##marmi
Aiuti
equivalenti
##diano
credeva
Villaggi
1959
##ICIN
##iata
circostanti
Ã—
Gira
curiositÃ 
scienziato
Leop
##ORO
reparti
andrÃ²
costiera
Aiutami
Francesca
raffreddamento
##orje
suddetto
##Cosa
apprezzare
iron
chiamando
##puter
##icario
secondario
targa
Governa
supporti
rivale
lente
soppresso
segnalazione
##/2001
Dream
britanniche
ET
##lenza
fasce
intracomuni
sparito
more
break
Allegato
1942
##tizzazione
##viÄ‡
sconti
Treviso
##gonale
parentesi
Union
Partico
##gnello
contraria
sollecita
##Commissione
##bat
Gr
indiani
scegliendo
Gloria
##icitÃ 
tastiera
eterno
Spie
timi
##dibili
##omico
##abbazia
Vari
##frutta
Spese
qualificato
Ante
correzione
lavastoviglie
inquinamento
combustione
Punta
sorti
##loghe
ginna
##zionando
Bei
1957
Circ
nodi
Chloe
Livello
location
##wal
##bali
minacciato
##utine
nastri
riscatto
fax
cano
##viano
##pocalisse
requisito
presbi
##sotto
dedicÃ²
##Gen
Fides
impegnarsi
##TRE
implicazioni
##monica
definizioni
Borsa
##oman
##AK
##ciati
guarigione
bottiglie
##ghai
Pianta
bobina
sapienza
##Ã§ois
intervis
##/85
##liot
Golf
seggio
crudele
descritte
fisicamente
decorato
ME
##ubio
Budd
doppie
habitat
casta
contribuendo
adolescente
##mmen
terminata
Bonnie
annulla
cambiano
pellegrina
Settore
abbondante
Nina
Stro
eccezioni
robus
situate
bolla
Cappella
sottostante
accumu
Ottima
preservare
Bentornato
decimo
SERVIZI
pianeti
rivelare
possedere
Emer
vergine
etichette
migliorato
Vicepresidente
Î·
prodi
referendum
##pira
matu
Cass
Cross
conservata
##mazia
Jamie
Eccellente
Thor
cinematografico
##esclusione
##interessato
fiero
pastori
alloggiare
difensore
Fonda
Negozio
Coraggio
Industria
1983,
Nostra
incarichi
##villa
miste
##ttene
raggiunger
Aziende
##tie
comportare
malvagi
giudiziario
##corso
ricevute
finanziati
##gior
congresso
filmato
Riesci
Samuel
accuratamente
carenze
rivoluzionario
##OTTI
Columbia
provarci
splendide
permise
Who
duo
biblico
##duttore
Offerta
##omio
termico
##OB
bur
aggius
##misfero
Fratelli
Gianni
ispirata
brevemente
1941
1948
Morris
distribuiti
finanziato
##Va
##prote
sostenendo
Pos
Ina
salta
##loruro
rovine
ritenuta
SAN
perlo
Compre
##ART
##ensivo
pedia
cub
1990.
##:4
##375
difese
##gga
Even
Eccola
ferroviarie
nano
potenze
fortunati
##elettricitÃ 
Damon
Fall
Sinda
pesa
##'80
##sciu
##lente
musiche
delegazioni
Ep
##qual
26,
##chezza
cominciarono
presentÃ²
subentra
Vaffanculo
Selva
menÃ¹
##dimeno
aggiuntive
Figu
##Esercito
Abu
Rho
distinti
chirurgia
##ssÃ²
##gabile
Tess
constatato
preferite
Prato
acceso
riparo
alleva
##zel
##mund
libreria
##Can
##prise
analoga
Conclusioni
##silia
ricominciare
battendo
149
provvisoria
volle
complete
Famiglie
sentirti
Porti
sacrifici
##integ
confra
ella
##autenti
predi
Rolex
155
emesso
vedeva
quar
Rilassati
EUROPEA
corrisp
##acquis
##Cor
Vertice
Alfred
Joy
servitori
Dott
masse
ribal
##affitto
##rero
Pensate
Friuli
##.2000
##anamento
##PU
PH
protetti
##wing
Dele
derivante
Informazione
penali
1974,
specificato
nobil
##Aeroporto
aggiungendo
Arriva
Banche
##-02
(20
black
PRESID
##rda
Congo
radar
Bilancio
diabete
amata
arredi
tredici
interrogazioni
avvio
ricevimento
pittori
\
##ert
Gregorio
viv
combatte
delegati
LIB
dava
GENER
analoghi
dispiaci
spingere
##falo
Kay
ava
ordinÃ²
319
##terete
divenuta
##importa
potenziare
agro
Din
Vito
1920
razze
dorsale
##tterÃ 
iscrizione
calcistica
##danno
Pictures
svariati
magnetico
rendi
caratterizzati
Guardi
Liam
sopravvissuto
##dai
rivestita
aero
##pel
terrazzo
EX
##meli
##elice
motivazioni
congiuntamente
##steri
nominale
pacco
Semplice
muoverti
##hei
insediamenti
ingegneria
Petro
Of
115
Finanzia
##chin
costruttori
##avessi
##Gran
esposta
Marcel
lito
trovavano
Salta
specchi
dovra
etero
##lav
##cioÃ¨
##fiato
cominciano
CI
##mentate
monetari
Arma
Nancy
guidati
Dil
correggere
attivare
portiere
annua
Babilonia
##dola
Fratello
pressochÃ©
oltrepa
Giudizio
annualmente
POS
Kenne
Isra
'9
prati
##cchÃ©
Fanculo
##mag
rinnovamento
bruciare
Julian
##eresti
sedici
raffigurante
##num
Titan
soffi
paglia
uh
Anali
scavi
##pens
Vada
Lungo
attenu
strategici
Moon
##scetti
rivestite
percorrere
dimenticata
##mpton
March
anzitutto
##loc
Fli
infrastruttura
dea
##rk
##nifer
ALLA
Aldo
Sarei
ioni
Oxford
liberale
simula
satellitari
##PSE
Vedete
refrig
5.1
##ferenza
Superiore
compressione
##utando
Precedente
milanese
##/86
##tosi
Ral
fidi
##allevamento
##uc
comportato
Otten
ritrovati
tolleranza
1947
vivendo
Romeo
inverti
delizioso
bari
Adamo
trofeo
Kil
##endice
LocalitÃ 
conoscerla
Organizzazione
esib
donazione
##dise
malware
Douglas
automobilistica
##alco
##varsi
##ttini
locomo
cliccando
##ggiÃ²
Seattle
vigente
##ssÃ¹
##elico
Doppio
##bit
macella
manuali
legalmente
##tarci
solleci
clientela
creÃ²
equo
Brooklyn
##pone
gan
##ideale
LU
##hal
distinte
450
vena
peggior
rimarrÃ 
##melle
caricare
disegnato
##4%
##ylvania
Vini
##abband
facevi
telesco
cercate
svuo
Miguel
avverse
##diate
Speciale
##segre
â‡¢
##nerÃ²
vincoli
Sergente
abbassa
Investi
nazista
scontato
##attra
##thers
Diritti
riteniamo
accademico
1972,
streghe
##asilo
##tainment
wa
mutu
Scrivi
straniera
Libia
vettore
infezione
convertire
Salomone
velivolo
##wig
##ugurazione
##ELL
convegno
notturna
Chiara
Cul
##palitÃ 
sottotitoli
linguistica
riunisce
privilegi
##arcidiocesi
Frankie
##VIII
##ordio
Vibra
splendo
##Iran
patente
##3%
eseguite
sedute
##CESS
austriaca
##gence
aggiornata
false
fiamma
convinti
installazioni
##ugorje
##danti
##giona
Debian
ucciderti
1991.
sapesse
circondario
coalizione
Sim
parecchie
meraviglia
##llati
averci
##lame
Marc
peni
fango
suonato
##kon
LibertÃ 
LO
##pressi
Commento
favorito
sospetta
opportuna
compongono
145
antin
atomica
Olimpiade
Sas
Sera
Concen
Concor
incendi
Wel
Conti
NL
CaffÃ¨
farete
##ingrosso
assicur
lesbiche
##senza
Audi
valide
##MIN
Rh
vib
DJ
lieti
Furono
scarsi
##_1
Quinn
olive
##flo
scinti
cambiando
Matthew
ritratti
Wins
Racing
economicamente
POR
Manuel
sofferto
Bassa
Marsi
chiederle
ritirarsi
amava
concentrati
casse
tecnicamente
ottenute
Haro
afro
##onazione
divario
Whe
##osita
castelli
sostituisce
SM
##resciallo
terrore
esito
Lecce
##Hamster
Benissimo
autoveicoli
Impor
##nazione
Net
##ALIA
farmacista
turistici
illimi
##/2018
##ELLO
##cuzioni
preoccupati
xHamster
ripeter
universitari
tecnologiche
riesam
##zino
macchie
##oh
##ttati
(...)
Raymond
rivelazione
riconciliazione
avviata
sincroni
installata
##pez
##ginale
millennio
vulnerabili
profondi
motocicli
##BR
##yan
Sesso
##GE
stampare
tonalitÃ 
##ingen
##nan
Dale
##zionaria
Soltanto
##gnizione
##Imperatore
rovinare
MercoledÃ¬
sperimentare
##spita
##accettazione
bruciato
##PER
Place
Stor
defunto
##gara
##incante
figo
##Cre
Tira
guidate
orgoglioso
intri
Î“
##mand
1955
PREMI
Shoah
bovini
settima
Avere
vendic
##alie
occupo
##creto
Mantova
sconfitte
##uva
##ureau
Marine
Consigliere
Jin
Pronti
Colombo
personalizzati
##gob
Mann
Nelson
cauzione
bambola
distributori
##alcol
genu
esordito
##':
##marlo
Ludo
##drete
Lane
offic
Kid
##trum
giuramento
proiezione
giudic
Giuliano
Fair
Vino
##viglia
preliminari
MI
celle
Court
influenz
##Oceania
lasciarti
profumi
ritrovare
ammissibili
designazione
esco
menzione
inquinanti
Benj
pertinente
##uld
##arsavia
Jackie
##ssier
##zzola
righe
aggiunte
(Â«
##bolizione
Deli
cadde
vorrai
riduzioni
Granada
##figu
##coltura
credenti
indiffer
chiamiamo
Tara
##XX
Interrogazione
##IDE
galera
Fontana
geografiche
osservatori
##nota
##uscolo
Page
dovrete
vorremmo
pluriennale
##diff
portante
influenzare
Sally
##erdi
sili
omonima
rimaste
preghiamo
##Book
Contemporanea
conoscete
assicurazioni
Justin
cristiane
1-
bambine
cioe
bando
impli
sensore
uniformi
trasformazioni
##vil
Dennis
stesura
Campania
anticor
Otta
nuoto
Classe
durerÃ 
##relli
##elevata
##autonomia
##annon
scu
##ghesi
##undi
Richiedi
chip
facenti
##Atto
##mmie
estremitÃ 
speso
Indice
sinteti
Sophie
Broadway
contabilitÃ 
Clara
toglie
Doveva
Immagine
prendete
##aver
Modu
vomito
Sassonia
polso
affermando
##DCI
cana
##culare
buttato
##merÃ²
##ggine
##IMA
Ognuno
contratta
Giovani
rientro
Vare
##taru
02.
africani
candidatura
semplificare
Mass
Saul
##American
Nuove
##allu
architetto
##phia
Ethan
Cook
formaggi
##mmiferi
concepito
##197
##ziÃ²
##.06.
##eronautica
bottega
telefilm
colonie
##uan
arriverÃ 
nominati
federazione
##clip
presenterÃ 
Venezuela
progressivo
VIS
Iran
ripetutamente
NUM
##PerchÃ©
Speravo
rifiutÃ²
##nett
tombe
infortunio
##llon
Eugen
1973,
curioso
##ranzia
Kath
##adeguamento
Dee
##rah
dovro
Trattamento
Introduzione
Metropoli
5%
Act
sapra
collocato
pÃ²
##Angelo
ricostruire
Jennifer
incubo
##sini
##atch
##bourne
pistole
Grey
conveni
migliorando
##ITE
richiamato
Cour
##agenda
Jules
cronaca
##Ã¶n
mostrando
attraversando
##rado
desktop
colloqui
baro
##4),
potenziamento
##artan
##bania
deroghe
Castro
##emissione
Entrambe
##allenatore
tess
minor
Cookie
imballaggio
Peccato
Potenza
retribuzione
sle
##umano
##ficarsi
40%
##8%
FarÃ²
aspettate
assunzione
inserite
fotocamera
Esci
##uble
Lore
##spor
daro
mandi
##insediamento
##rentina
Lampa
sacca
colpite
positivamente
mancare
##esenzione
IO
archeologici
Ever
costiere
scommessa
eccesso
artigianale
Ravenna
finitura
stupidi
Az
Ef
risulti
dottorato
anom
giornaliera
CER
Kai
segnalato
##kia
Eas
hoc
Norma
conferito
##monio
##esordio
finto
15:
comand
aggiusta
invitare
##intesa
Toby
iniettabile
##finita
##ziario
tossicitÃ 
##sive
##riturismi
apertamente
Vor
Miles
ideato
smantel
Contrib
##mise
##intensitÃ 
informale
##ziente
firmata
costruttore
##esse
##omiche
mista
ereditÃ 
Dottoressa
artistiche
Rita
Rivoluzione
##endi
dosso
##giata
##Servizi
##dista
Eccoci
autonomi
Dark
##occidentale
cantieri
stipendio
##democra
dolcezza
sovietica
eleganza
##escovile
vincente
169
colorazione
combattimenti
##ial
socioeconom
combin
1).
tratte
panno
antibio
##jon
##esplora
troppa
dedicarsi
circoscrizione
approfondita
##tese
goccia
accerta
cofinanzia
##oscu
quand
Isaia
##800
gemella
beta
Sierra
Shar
##famiglia
##cosio
utilitÃ 
esci
Italian
prioritari
##phi
##olfo
compie
franchigia
pension
fantasmi
destinatari
##giana
auguri
##lito
ale
Sher
1970,
##ots
Rina
fantasci
dichiarata
esportatore
##TRA
avvi
gratitudine
8:
172
Lex
fotografo
Kurt
##8).
pp
elencate
##lusa
apprezzo
##automobile
elettromagne
Umberto
hardware
Jam
Ragazze
propongono
ottica
Presso
fissate
##sung
rispettato
sottoscritto
##1992
Lido
##tesi
Cognome
cellula
cronica
##tuosa
Medj
Betty
dicessi
coraggioso
Fuma
spro
ricordate
Tari
rispondi
coordinare
manga
##ggs
Pack
Accettate
Ramb
Fabio
Kennedy
medaglie
##animazione
Muoviti
morso
vittori
israel
sottocu
pregiudica
impara
Francese
NU
Nata
zitta
conserv
ricette
Academy
accedi
spiegazioni
occupare
aggan
##incremento
Bou
presidenti
ricambi
##formemente
##ccante
Archivio
##-03
Raccon
##Spe
illegali
Lux
cameriera
##ccioli
Clima
marini
vertici
segmento
##ricando
essermi
Jugos
parlarmi
universo
statistico
esenzione
illustrato
Afghanistan
repressione
apparizione
##Super
purezza
pronunciato
Strate
violino
metterci
esperimento
privi
##americani
Strumenti
gemelli
Isp
pareggio
Pann
123
Vescovi
TG
Arezzo
istrui
##VIS
Letti
evangel
Graham
sedile
restituire
###"
termica
convenuto
autorizzazioni
112
facce
frodi
##risp
comunisti
##tras
##delle
dinamico
FEAOG
Partenza
suddetti
protette
Prendiamo
maglietta
incomple
##estrazione
maturitÃ 
contattato
cattedra
Î 
NA
champagne
##umibilmente
##ASE
ristre
##zzonte
barone
sfumature
Julie
realizzÃ²
redatto
proc
eretta
ribellione
conosciute
potassio
introdotte
accompagnare
nipo
Gonza
aspet
Iugoslavia
partecipando
104
avanzare
##eng
Paro
restando
divenendo
appartenenza
Rod
Space
##TAZIONE
invali
ellen
affidabilitÃ 
165
sollevare
Domini
Serve
perim
ritirÃ²
aspira
##lisi
China
156
Whit
adatte
individuato
##erite
sfortuna
impostazione
esal
##cchetta
ron
##cloro
##Au
Ristoranti
Ella
accentu
propaganda
Gy
nuda
composte
Sfortunatamente
##7%
##leans
##contri
Stock
##eti
16:
Garibaldi
competere
25.
dirigere
raccomandata
##arcivescovo
##ZE
Arre
sposo
alpino
109
arabi
Rico
##Station
fabbricante
##cee
Wien
##ettazione
##:00.
scopa
citazione
terminali
orna
rimpro
Rosario
mele
Spunti
PREMIUM
soggiornare
feci
Watson
Aggiorna
rimediare
riscontro
programmato
152
urban
ecos
Detto
Ebrei
Varsavia
##vona
##uco
(11
128
sblo
Apartments
##1993
cerebrale
proporzione
##isten
capsula
alfabe
##isione
##etz
Alba
##appello
agenzia
1930
censura
Casey
partnership
Beat
EtÃ 
clero
Sportiva
ipote
unghie
ingaggiato
##llata
Pat
##randa
##sela
cerimon
infortuni
autostra
Manager
impazzire
interroga
TIP
filiale
Italo
SarÃ²
##alfabe
Mason
siero
zioni
vattene
muratura
Edoardo
##accoglienza
rimanga
Wild
fiato
mezzogiorno
attira
##NG
Rive
Navar
guanti
Shawn
106
##ccor
##paesi
##ggiu
venduta
risurrezione
vernice
splendore
##animo
Friedrich
prato
stabilizzazione
nausea
pseud
FinchÃ©
##abolizione
monitor
toscana
##ursion
lavaggio
##EX
brav
risenti
##alloween
montato
flora
plan
Donald
indimenticabile
stampe
pompe
aderenti
##Val
trattate
pellegrini
LomÃ©
pose
##vese
riempire
##emisfero
editrice
irlandesi
##05.
##Des
VAL
centinaio
perdonare
inaugurata
##ambulanza
ecologica
enuncia
##istino
##ionon
Prince
Occidentale
##â‚¬.
concede
##ccolta
First
trovarti
##Ni
utilizzatori
elettori
maschili
parru
cipol
container
insediamento
alcol
##==*
Architettura
Tam
bili
fermarlo
##funzione
##sservanza
chiedermi
Monu
meso
delib
evacu
Equi
rison
##UTORIZZAZIONE
eta
pilastro
speriamo
##odio
##lines
cy
Rei
riguardi
pani
Cruz
Liz
##tificata
Summer
dottori
clausole
frattura
perimetro
##mentando
elaborata
##under
boss
preparazioni
##1991
unitamente
aderire
handica
alimentato
##zzerÃ 
Amburgo
disegna
assente
Renault
##individ
vincolante
architettonico
Kyo
##Antonio
[3
BMW
premere
##fos
trian
Modifica
##aii
page
##str
##stu
##terei
##versali
##lman
causando
Remo
basano
sindacali
Vet
Woo
drago
yard
inaccettabile
##versal
slova
##andina
cartu
##utati
intellettuali
##accel
Munici
flaconcino
Musei
##/02
Joey
soddisfano
##ggini
Lascialo
176
AndrÃ 
evoluti
Stanley
reagi
master
Composizione
ER
navali
Alloggi
Claudia
##appuntamento
terribili
Grafico
Mezzo
Cerchiamo
Cambri
Global
Luoghi
Succe
credete
aci
##belle
accettata
personalizzato
metabo
freccia
##cilia
Pere
[2]
biotecno
##lot
fluttu
##alizzare
volevamo
##say
sciol
Benjamin
##2%
Sm
cambiÃ²
##ficatore
Digital
##dendosi
opa
##IMO
##ssin
Serena
Silenzio
paragona
##garsi
analoghe
ita
##fonia
manchi
canoni
##mons
riuscirÃ 
##Oceano
professioni
realizzando
##gner
Rue
1936
Richieste
1954
indurre
Î±
##colle
Testo
##ETTO
##adattamento
Zitto
radun
##ponimo
riservatezza
##uff
##ferno
Finche
approfondito
banconote
##urri
##ping
##onario
Figura
sistemato
Minute
webcam
preferisco
passeggiate
##/2002
elimina
rinoma
complice
##neso
Brava
Gliel
##randosi
Management
##abbigliamento
Ostelli
appropriate
riveste
metterlo
eno
Riva
concili
Fron
##ggiorn
recarsi
risalto
delicata
piemonte
##unce
dannato
spot
##CM
Jenna
Gabriele
135
risc
parlargli
Carra
##pediniere
Eiaculazione
Zoe
##coltÃ 
ricorrenti
busta
coach
vocali
remoto
scarso
##mura
Letto
corporeo
Dagli
preziose
sentenze
svegliato
Khan
perfetti
Naturale
##ddal
disputata
Gor
##alternativa
teneva
##Av
SD
Llo
Medjugorje
occupazionale
africana
tatuaggi
##sting
Wer
primato
svin
##03.
4.5
XXI
4-
schiavo
Johann
cannone
infanzia
##Iraq
tizi
1938
Raggiun
sollievo
saga
TOT
dirigente
(*)
##/06
##pici
##destramento
##vette
Aure
Ny
pirami
impressionante
##orecchio
Registrazione
localizzazione
Popolare
Technology
Peso
dila
interazione
Stavamo
##andra
avuta
studiÃ²
##fric
beneficenza
acri
carboni
odierna
100.000
##gr
Dormi
##!".
18:
pessima
necro
14:
Zan
##ciÃ³n
##densa
##OK
Trentino
Ellen
gestiti
bordi
emergenti
Statuto
##.]
Inse
interistitu
##sone
Shaw
##ciclopedia
##AY
idioti
sven
ricrea
166
foglia
sostituiti
Tower
informativo
reggimento
ottimizzare
##ulto
Intel
ostelli
scoprirlo
##tificazione
somme
arroton
UI
Teddy
##ssari
##ccano
GATT
routine
##estrale
schiavitÃ¹
##pora
negare
##upe
##erma
##uilding
Defini
lode
Women
liscia
arredate
prin
17:
lotte
sostenute
Popolo
sostenibili
##lic
rilasciare
##seo
pulite
##mettiamo
Winter
ART
##quote
Listino
vigilia
Governatore
##001
Are
tasche
##diglione
meritano
1953
15%
Food
quattordici
##30.
Vane
cito
that
chiacchiere
rapimento
##ZIA
giurato
estrazione
donato
monumentale
McK
RF
Harold
Franklin
Edimburgo
##ttÃ©
**
muoiono
archivio
Warren
attivita
impedito
Promozione
##dil
limitro
102
##allaggio
(0,
coun
##04.
aggiungono
polo
##fs
),
vitali
##zionismo
##kk
Dimmelo
responsabilita
chirurgo
pate
esisteva
accettate
##sali
chies
revoca
Tes
##estere
##gnese
Allah
imbro
dolori
fontana
salvaguardare
##.-
Rocco
##chus
Campagna
Sull
saluti
SAL
dinosa
transitorio
##Bri
beneficiario
vincitrice
classiche
##zzamento
continuando
Reich
##omor
fero
TABELLA
zuccheri
luminositÃ 
Shanghai
##langelo
##utile
Terri
Gratis
accede
1949
Agricoltura
Arts
endoven
restituzioni
sbarazz
sinceri
combinazioni
Wiki
trattata
pagati
tronco
abbandona
Pietroburgo
crosta
esclusivi
1951
ferrovie
##erino
##logicamente
lenz
balle
Carrie
indiana
alcuno
accoglienti
SOL
sovietico
appoggiare
assunta
##veland
pubblicitari
segnala
##dinali
MaestÃ 
##rossa
1952
brus
##ctu
ner
rallegra
imprenditoriale
ridico
Orleans
##kt
##nd
(â€”
stagionale
estremo
rispondono
metabolismo
Pochi
araba
adorabile
##ISTR
terminÃ²
##ig
##ylon
allievo
riusciremo
MON
Enzo
sommo
fascista
osservati
cazzate
ansi
Dina
letteraria
Pire
Hea
##ANC
cessione
finiscono
##vul
postu
percep
sospendere
this
Morte
suscetti
##infermiera
importati
Photo
Petra
##som
##insu
Salone
nascondi
Bernardo
sfer
possiedono
##individuo
##capi
##missari
Intendi
valvola
##inclusione
intelligenza
Â».
Mitchell
automati
##tenegro
padroni
notturno
Won
coso
7-
bovina
Magni
Salvador
##1%
##dem
essic
quotidiani
##brio
##urce
##morragia
##idra
Rafa
Alicia
cardiaca
##.15
nodo
strette
portiamo
suddivisa
lascero
sicure
versare
influenze
incantevole
recuperato
indirettamente
KB
Smart
offesa
topi
##drai
alleato
opposta
appropriata
scivo
##cerebbe
Dise
##assalto
caduti
Posi
marchese
##pota
finÃ¬
##istemi
##riculum
ascoltate
##critti
dormendo
quadrante
##CHI
##petto
##meti
Cairo
filtra
particolar
##lant
Randy
scenari
esprimer
##uguaglianza
sceno
##tecnico
coltura
Cardinale
arrivarono
SMS
leggendo
farmacocine
addo
detenzione
##ground
Py
##intervallo
Maya
perfo
pochino
cappo
Colora
valvole
ignorare
mouse
convertito
##unali
book
Compi
rotonda
introdotti
##zzine
Jazz
##azzardo
##vu
##stan
##01,
##400
Snow
Notte
##08.
##intesi
Cameron
clinico
regolabile
Magno
tropicale
Arena
##vorio
Moni
battito
direbbe
gettato
coma
Penna
Pietra
mandata
approcci
##dizionale
sinceramente
##avvento
tablet
organico
##live
visivo
MB
sinto
Luciano
##Visualizza
##sinki
migliorata
Maddal
##ady
doveri
ammonta
piscine
negoziazione
##uris
Conse
suppongo
##pot
portavoce
##etichettatura
##ereditÃ 
capirlo
##lock
Marty
mania
##vÃ¬
##ries
Dodici
intesi
riflessi
ebreo
periodicamente
##atter
apparve
comodi
ministeriale
curata
dimostrata
25%
interpretata
Ob
ragazzini
##sico
forestale
tassazione
##comm
God
liqu
lupi
##rez
Ev
Punte
passivo
promette
##zzazioni
##eccellente
intrapreso
tattica
fantastici
contrattuali
##zin
##ador
5.2
orme
Cannes
incontr
##Grazie
lotto
guadagni
Get
Neu
##conosci
Jugoslavia
arredato
##amministra
scolastica
cis
##proce
dubito
improbabile
discreto
##dg
162
Metal
voluta
##ttano
irregolare
Roth
altern
(40
Canta
mozza
astensioni
Situazione
Uomini
##fol
cle
Bridge
kW
contenti
##Â»)
##ANTE
scoprono
##endolo
Sparta
##dent
122
Mano
piacer
fertili
Mauro
##1990
concord
9:
difficilmente
Diversi
miracoli
##lit
ingen
dorme
viceversa
attribuire
recin
guerriero
filati
massime
##gnon
visioni
indennitÃ 
simpatico
##pane
add
competitivo
riconosciute
Lasciatemi
fermamente
Pari
Vibratore
Marin
alunni
anato
itinerari
imme
sgu
superi
sconosciuta
Esteri
cratere
##.02.
Liguria
andasse
Pato
filosofo
usarlo
ossession
immaginato
laureato
##curity
Opere
grida
Lamb
Colonnello
promet
rituale
convenzionale
Baltico
bugiardo
Harrison
vederci
orizzontali
##fite
##witz
##ficanti
TS
(35
brutte
Magazine
consolidare
aprÃ¬
interviste
ubbi
Schia
Finora
##metterlo
appresso
Palestina
##tts
##verete
Riley
terremo
intervalli
Michi
fecon
ricostitu
incaricata
trattino
pronte
##rit
##dema
##fante
##ols
##vibile
2019.
##integritÃ 
Hon
Dipende
azzurro
UF
Cera
ampliato
compensare
1.2.1
attrezzatura
TAC
##erlock
Carmen
Ami
Galileo
azionisti
spru
misce
andarono
GN
240
Conformemente
##ologo
agito
dumping
fune
Penns
estremi
fidarti
scenderÃ 
##verne
Concord
legname
##abbandono
1971,
##rondisse
antenati
elaborati
##integra
immediate
bancari
Fernando
rulli
sciopero
successe
Membri
persistente
750
branco
iscrizioni
furi
salario
Orchestra
precede
##zate
118
lino
##Euratom
##entazioni
affilia
##News
prees
121
casuale
Isabella
##Ve
##gnoria
ammette
previdenza
stupendo
##rett
teatrali
gentilu
##phe
##iser
Bush
##punto
Toronto
CYP
tiri
Anagrafe
unite
rasa
Blake
colto
Istanbul
problematica
Audio
missionari
apparteneva
decesso
stupefacenti
Segu
Consegna
riscuo
libretto
Lasci
ottengono
##TP
##see
Dallas
Sony
tartaru
##udere
Panama
Partecip
coinvolge
metodologia
##affermazione
dovrÃ²
##ttiti
##patico
aeromo
##volto
1989.
infusione
Subs
budd
Volevi
##!!!
##enale
fingere
unitario
##orca
Fanno
Martha
geno
curve
lamenta
microsco
##fel
puntare
scaricato
Sino
party
##insegnante
rilasciati
##tham
scarto
07.
corta
(25
seni
##franco
restanti
preceduto
##jah
##-25
##ANA
##diente
##cuo
mando
constata
%.
##patite
portarmi
##dose
##viata
credibilitÃ 
##amoci
##-21
Caccia
inserimento
##she
108
##edilizia
##metil
##verde
Vecchia
dovessero
polacca
Ï€
##fiore
piega
Cleveland
attribuisce
##ispe
Strutture
uncinetto
compimento
scontra
manufatti
Hein
vendute
alzare
##Gre
Abe
tentÃ²
imparti
pensavi
solleva
##ANI
riabilitazione
wo
divo
##Tri
urla
imbarazzo
verticali
consegue
##ddle
tenebre
Saremo
cotto
infarto
Fed
vivevano
Pubblicazioni
##eltoe
indubbiamente
Cena
Impegni
direttivo
inviÃ²
##dabilitÃ 
divergenze
RI
mega
##venute
Pennsylvania
Eco
Studios
117
Marcello
russe
Hunter
##ALL
##uil
Suggeri
##coslo
Montenegro
autorizzare
interattiva
leale
esorta
Torniamo
NUMERO
##ctions
stando
rimettere
sottoposte
##ded
recuper
decom
tornano
##altÃ 
Rub
decisero
Tasso
##secondo
nuvole
imballaggi
ringraziamento
incisi
Cameltoe
##tenne
Bosco
Gara
best
innes
compar
municipale
comodamente
siri
Delta
173
77/
##ucaristi
partori
immobile
guerrieri
infantile
eccessiva
esportatori
GBP
Terza
Airport
flag
minute
soprannome
##?".
EV
specificare
##girl
cita
Angeli
Biblio
barocco
confusa
Cavaliere
rinnovata
inevitabile
Stark
Helsinki
##produ
##verato
stivali
debuttato
100,
Mela
sottoporre
avvicinarsi
ingo
concessioni
##kini
schiuma
Bureau
Dietro
detenuto
parlamenti
##700
##osso
click
##gascar
produttive
##eratura
##gianato
eliminata
##astro
Games
accettano
Presti
##immedia
pieghe
Chiamami
qualita
dogana
##300
Neil
5.000
settoriali
archeologico
##chetto
incrociare
acconsenti
Beau
viale
##accompa
##elta
tosta
Scienza
##ellone
respingere
telefonica
PO
##ladelphia
logico
##look
##vatta
Ball
rimpa
succeda
feudo
Entrate
TrinitÃ 
Attre
##racusa
Resti
riusciva
palli
incidenza
standardi
fagio
assegni
Raff
imperiali
interfaccia
##Ã¡s
grati
suddetta
##mouth
predicazione
ghi
##silio
Mappe
esegue
##of
distrugg
dipartimenti
ripu
Francoforte
potu
##.;
minia
MEDICIN
PlayStation
##prezzo
aggiudic
##verci
##ichel
arresti
attivato
trasparenti
dozzina
spezzato
##Bra
##bizione
nascono
attrezzato
discendente
##Colle
##AZIO
##eggi
alternativi
Entertainment
##Pri
Felix
Venga
##geranno
FS
fluido
assegno
cristalli
resoconto
Ner
##icola
5000
Fiume
affidamento
distorsioni
sviluppando
organici
##ATIVA
##tiopia
1968,
Natali
Siviglia
TUT
creativa
arancione
Satur
fianchi
assomiglia
municipalitÃ 
##mile
oscuro
brillanti
macroeconom
##quis
##alina
Disposizioni
Tocca
nuclei
santitÃ 
Sex
entr
Castella
colorati
integrate
solitudine
divulgazione
##publi
whis
testata
operanti
##desh
BBC
Novo
tesori
##tetto
urgenza
ligne
sottospecie
sbarco
concorren
tamb
85,
##Am
DECIS
soppre
intimo
competitiva
Â§
workshop
mozzafiato
##odierna
salito
rintracciare
Spetta
miliardo
idrocarburi
segretaria
##vai
Sanremo
##americano
##oltremare
diga
FranÃ§ois
casti
intima
congiunto
STA
##ducato
dispensa
consecutive
##My
Maritti
Mission
Finis
proporzioni
soffri
vano
##fine
nono
logistica
recÃ²
pullman
sovvenzione
##verendo
Imposta
satelliti
continue
cosmo
alieni
##abitudine
disavanzo
Tin
Normandia
##erne
Vladi
cerch
Houston
##xo
minibar
trascri
mantenne
Hand
Stuart
delinqu
disabilitÃ 
nascondendo
trasmesse
brasiliano
posizionato
spostamenti
##Bel
abbassare
lubri
contano
bontÃ 
##oscritto
urgenti
suggerimento
giudicato
##zzarlo
Bartolomeo
Travis
adattarsi
consistenza
smar
lieta
Collins
##gelizzazione
SL
Bin
##deli
palestinesi
Paper
ospitante
distributore
Office
bimbo
##antichi
##sseto
Dovrai
Sociale
premiato
capolavoro
care
##ungsten
vergogn
##eco
Bj
collettivi
convince
spaziali
##gla
##sciuga
cugina
##Ai
armadi
##sticamente
aumentano
##imposizione
manifestarsi
tematica
Shin
Moore
urlare
##CEN
##bos
SÃ©
103
168
PAESI
vicolo
squisi
ribadito
161
riferirsi
##POSI
##Atlantico
151
ramma
ricavato
Boni
pizz
assassinato
affermazioni
formali
fastidi
##CP
Halloween
Canton
menzionati
assumono
Credimi
estrarre
##enzi
##inghi
Dillo
talenti
Regi
violenti
segnÃ²
indotto
sbagliate
interpreti
1929
##abitato
debutta
appassionato
golfo
distribuita
Test
Giovanna
##UTT
tregua
invitata
##ETTIV
incontrÃ²
consentano
##/05
##farmacie
mortali
31,
Biennale
##pass
1937
propriet
Professore
ortofrutticoli
##Casa
Arc
Dur
dedicare
Generali
##apparecchio
##roll
Cora
##rondissement
##600
Pel
Michelangelo
valli
rivelÃ²
millimetri
Doro
Quand
manos
##6-
##Pe
Gel
Sudan
respira
compromettere
valigia
tariffario
Riceverai
entusiasta
Crai
potevamo
vitamina
Sound
parlate
serbo
inserisce
##agen
Ima
Muss
FacoltÃ 
sorgere
##ispirazione
Gan
Energia
imperatore
convenzionali
perla
recitare
##60.
##kespe
Occupazione
##sos
##iniezione
Stare
Theatre
Maddalena
impressione
##tilene
meccanici
##AU
##ontana
selezionate
Neo
Sbrigati
##erabile
Leslie
primarie
##porta
##assistente
##colm
elementari
vendica
memorie
possedeva
##dezza
##ESA
##burn
insigni
Sherlock
vorranno
Holmes
##00/80
##incirca
flore
##giu
Orientale
vivamente
##mited
conforto
nativi
##="
Sou
Policy
preside
ll
calce
informativa
liquidazione
##interazione
##pment
prescritto
Santuario
preparata
vibrazioni
##EB
Price
Incredibile
Sulle
disattiva
psicologia
fissaggio
rim
ende
Riviera
##ORD
##lard
laici
##rat
Classificazione
Kie
illustrativo
##terrÃ 
##vention
calciatore
Murphy
TOTALE
bloccata
episcopale
##appalto
##tarli
Disse
Donne
affe
calmi
additivi
Onorevole
Core
segnando
1935
presentava
##giati
cosic
calze
conobbe
##HL
basket
conservate
##CHE
povere
##aliquota
Taranto
Nera
##doli
teorica
Resistenza
indicatore
##entate
View
Caspita
palestinese
##zzetti
legislativi
##door
attribu
suscita
bolli
rappresentate
ww
lastre
##attrezzatura
##2000
armadio
modesto
Nov
##intra
folk
ingegnere
##Ã±a
##kok
scarpa
paragon
##ullamento
##modernamento
subisce
Olimp
nominare
mic
incomincia
geneticamente
Monza
Sesto
Madagascar
Katie
Azioni
).
puttane
Bli
congedo
allorchÃ©
Nicole
sparti
##ficia
##Sco
Europei
osservate
largamente
Yama
letterario
Bevi
romane
##02.
Menu
Stadio
Blair
manifestato
##tosani
padron
dividere
Nie
basti
chieda
ritornÃ²
umiditÃ 
equilibrata
persecuzione
##ales
Iron
Venere
ProprietÃ 
papi
psicolo
##zzie
svel
Malcolm
settimanali
(7)
##cane
##zato
inquietante
##lfo
conformarsi
sospesa
##dian
107
appla
asciugamani
Settimana
ricevendo
Este
Gallo
espone
revo
formulate
##wai
##Bla
##mpre
aeropor
##Pal
##meni
##ditoria
Regola
trovarono
Spring
##Puoi
disposte
##olu
lus
gastro
adattare
darvi
condivisa
##omar
accolta
embri
##MIS
significhi
impiegata
(24
##menia
Iso
vetri
Emilio
equipaggio
##Abbiamo
distacco
Alfa
##andolo
pianto
teatri
simbole
##ficazioni
##ferma
complicata
##ichÃ¨
##rossi
##ordini
##AIDS
Isaac
pallacanestro
##Tor
1918
regni
testamento
Booth
rivali
fattispecie
quartier
arcivescovo
##zzarono
caratterizzate
##ii
##tanei
misti
Chiamo
Hawaii
potrÃ²
Ã–
94/
disgra
##addestramento
158
ASS
interazioni
aliquote
90%
Figli
Monroe
gonfia
dissero
nuotare
##ssinio
Brand
igien
stadi
supermercato
##perÃ 
esporre
pasticc
perfezionamento
Kent
##plicazione
lasciarla
persua
decisiva
##df
conosca
ristorazione
##ferire
formando
##16)
##aring
installati
##Argentina
velivoli
ESTER
verrebbe
distrutti
##ttie
chiedete
formalitÃ 
fing
forestali
tifosi
cacciatore
straordinari
estivi
massacro
rinunciato
##11)
mago
##Â­199
##dus
partÃ¬
##ettuale
##allotto
Intende
innamora
##enix
##setto
promossa
bracciale
TIPO
sedili
Cognomi
neonato
maesto
compaiono
Clarke
serial
prestigioso
##isy
www
mais
raffinati
prosciu
20.000
bat
avvelen
restrizione
Philadelphia
##dez
MÃ©
Industrie
ChÃ¢
174
Rap
##rinten
pesti
##Cas
Creta
annunciare
andavano
##Tutti
Estate
Squadra
sviluppÃ²
##iononostante
126
scommetto
Vuol
lutto
prostituta
##naro
lucido
Scia
iran
finirÃ 
neutro
maledetta
ricordiamo
##aran
##ICOLO
rapper
Kre
Diane
cartelle
sensibilmente
1924
obiezioni
batterista
dorso
Ralph
custode
divertirsi
##Ter
##universi
Domanda
risalenti
rigida
3,5
insistere
riferisco
1928
##coscen
##kie
dubi
riconversione
gr
Pop
severa
##effettiva
sna
litigare
pellegrinaggio
Eug
plas
getti
##undation
candela
arredamento
Rob
sapevano
presumibilmente
##etera
onori
PROG
rein
monopo
sembrato
sondaggio
##rer
resistenti
rate
Sveglia
svariate
Ricordate
Tranne
163
##kking
paesagg
##cipazione
freni
meeting
servira
##inaugurazione
ole
##segretario
costanti
##ways
Pola
identico
##hili
##etroit
scomp
incastrato
innovativa
sostanziali
Wells
bevi
sega
esordio
coniglio
renderlo
sintetiche
cocaina
diplomi
##essenza
##disciplina
pellicole
PRODOTTI
preferenza
##tanee
mutamenti
Adams
Logan
##anch
Lud
##Ge
##oncino
esigenza
commettere
DS
FAR
##setti
turchi
2.0
open
Inno
argenti
costellazione
motto
Comando
schif
accorto
imposti
capacita
conoscevo
comunali
Anteprima
164
##trinse
Potrai
##BM
immissione
5)
cantato
nobiltÃ 
Principessa
##zzy
Giaco
Marca
godono
##osu
Gale
diesel
intensificare
tarda
mediterraneo
accennato
conducente
Bic
##reale
spen
Schmidt
sbal
##volino
##centemente
##insa
chiudi
beneficiano
camper
Philippe
alternativo
giganti
scappata
Dizionario
Casale
Caleb
##lÃ¬
diamante
intendeva
Ple
pescherecci
Nes
Run
Ã
##stic
##orum
petti
superamento
GÃ¶
Luisa
renda
beccato
gita
Ambro
159
Flu
Kur
classifiche
##yoff
##tÃ“
##mmaco
Elet
1915
legittimitÃ 
obbligazioni
orgoglio
Turner
##centesco
mido
accettÃ²
##1).
##stor
diedero
trattasi
eccessivamente
biblici
Considerando
fermarsi
radicali
riflessioni
sviluppatori
GP
cava
ITALIA
fli
Spezia
interpretazioni
##ild
fuochi
##thern
compenso
Keith
conferire
Point
AGRICOLTURA
127
##diana
##inteso
##quando
molecole
Cambridge
destinatario
Debu
ucciderla
end
donatori
Moro
##strato
emana
Spara
verificano
Trasc
##trasp
##ioritÃ 
sigaretta
sbri
convali
##Ã©ra
Nigeria
Side
##torica
sostenuti
##mpie
Berg
Regionale
mitologia
fari
##allace
ladri
chemio
intervallo
Theo
##9%
lanciata
##bici
Montal
ordinaria
##fta
morbida
144
Kol
Siracusa
##CT
%,
##UnitÃ 
sposi
modesta
MEDICINALE
Ugo
Neal
bellissimi
1912
Gruppi
Romana
irregolaritÃ 
apprezzamento
##fox
artt
##americana
Buca
ripensa
##grafa
##idiota
ceneri
soprav
opportune
meditazione
##mour
##RAM
Colli
risanamento
##fur
##ucaristia
liberali
##mol
Tea
tropicali
##ambigua
abbandono
notificato
meridionali
##getta
rovescia
##gilla
1988.
Federale
leadership
Clemente
##ML
trava
##disci
Libri
Sina
dinamiche
Premium
adiacente
TEN
Nora
##gesti
##.1.1
##impronta
conduttore
##omba
Main
incaricati
consecutivi
##bolli
Deci
Austin
pancia
##quin
nazisti
distribuire
partecipar
##GO
costosi
##-04
rivelano
ricevuti
assicurati
specializzate
Franca
sensazioni
lotteria
Converter
##zienti
terminare
fabbricato
Viaggiatore
TRAS
setta
Nostro
perduta
assicurarmi
Tera
reattore
costituite
ricavi
Abramo
Estonia
Ubica
Grappa
renderÃ 
accettati
videoclip
Dama
##sionalmente
##toso
2.000
Umbria
rinascimentale
lungi
adottano
Boli
Philli
Paola
abuso
apostolico
accompagnamento
##Press
Chann
vulcan
daranno
dovevamo
##Ue
##ering
##lance
##teralmente
Pesa
stupenda
Marsiglia
acquistati
vasti
##ix
Rese
Mega
##vari
scara
##cele
ostaggio
abitativa
commercianti
##BL
##ace
HIV
chiamÃ²
1927
accolti
proteste
abitazione
vadano
##ispezione
obbligatori
##0.00
Hale
campus
Mere
##UMI
Nobel
Varia
sponda
tuber
aprirlo
guadagna
##GA
Croci
Romagna
Settecento
Utilizzando
##Arci
hot
That
immaga
adopera
Annuncio
foste
slalom
SOCI
##torpediniere
##centesca
magnitudine
pirati
esclude
##interruzione
##RAF
rugby
perle
time
riconoscono
artigiani
predom
poterti
Adulti
##vena
157
Diver
sindacato
Eng
Piuttosto
surf
firmÃ²
ordinario
##dettaglio
sorprese
Indonesia
controllando
normalizzazione
##spo
##nome
Ober
cartel
potro
fabbriche
##CED
parano
nervosa
Ufficiale
volontariato
Fase
Collection
##VE
##apparato
Bee
punk
Warner
contrattuale
##CON
identificati
sere
ansia
passeggero
informatico
##Siamo
##fobia
154
Garcia
banane
##Land
##OO
Risparmia
avvertito
reagis
dettagliato
cartina
Intendo
matrimoniali
##venir
morfo
But
##cional
trapianto
paes
Doccia
preventiva
var
1933
##International
0,1
##darono
simmet
finendo
palcoscen
##:5
Bagni
Comics
sposarsi
Abru
quant
Semina
esaminati
rimani
fori
ricchezze
Ice
##zania
mara
##meremo
Story
Dentro
annunciÃ²
errone
preferisci
##Ale
Guar
##presso
escono
##nos
##pistre
siccome
Detroit
lascerÃ²
##kee
agenda
Procedura
Colui
cordiale
municipio
##ATORI
Bieloru
Country
##foto
##ttenimento
assegnare
vecchiaia
Apollo
cacciato
##terebbero
disperato
##lease
##inarie
pedago
Jr
ome
Ea
##paci
Ans
graff
##gun
Ghi
Kyoto
udito
Family
tornate
##oter
##wley
sceso
Mei
Sprin
cicla
saprÃ 
oppone
benvenuti
connessioni
##eds
Extra
turche
Borgogna
Acquistare
supportare
irach
elenchi
partecipazioni
giacchÃ©
orgasmo
##5-
##31)
misteriosa
##GAN
noioso
giornalieri
40,
##llone
Station
111
filmati
##nar
##caseari
sponsori
superano
travesti
##Ness
verificati
scud
Foundation
GT
116
ah
Persia
gelati
favorisce
##-2019
##giene
##ssau
vasche
##cessione
##ammiraglio
sina
contribuirÃ 
scioglimento
anteprima
scommettere
Pulizia
##rumi
Prepara
corrotto
meccaniche
impermea
##invecchiamento
##erio
ripete
turca
etnica
obsole
preparativi
Dario
Mrs
##Ecco
##pson
Farmacie
Lawrence
##disambigua
figliuoli
riflesso
directory
impazzito
Quarti
"...
##chille
Aqui
Ster
##trimoniale
##IFI
generoso
pollame
##colÃ²
2.5
assegna
scopare
##vices
##glu
acuta
esplica
##tinerario
##unte
001
sfio
esilio
Hell
manch
Ideale
caricato
129
##ualitÃ 
ecologico
comprensibile
##scano
Rimane
fabbricati
FESR
Claude
Hiro
##drey
gradevole
##gane
Kor
progredire
conciliazione
mancante
seminter
Conser
Sapeva
spento
##uge
##Gia
Giove
Fiore
piacevoli
presentarsi
mostr
significare
particolaritÃ 
1985.
##iolo
sfruttando
Basso
fermate
INDICE
matera
quinte
cloruro
propulso
##ascensore
subacque
chiamarlo
Inserzionisti
progettare
celebrato
##lynn
##Itali
Atlanta
commemo
Ubicazione
##uxe
Vul
##arcipelago
educativo
##bana
##doto
size
ispezioni
redditivitÃ 
##6).
50,
sella
sognato
##stie
sessi
sentirlo
Mille
Trapani
accettazione
rilancio
costruendo
divertendo
microfono
114
ProgID
##altitudine
##sha
sis
idrogeno
manifattu
Mack
##nipotente
Dite
effettivi
veterinari
##olly
Gente
edili
negato
fondamenta
avvertimento
##ishlist
scoprÃ¬
ram
##deaux
##spedale
collocata
pallavolo
accadendo
esercitato
Trasporto
atmosferico
##icona
generico
discrezione
##OSS
SW
Ein
##etri
08.
##point
desiderare
##ologi
mediterranei
buca
##Islanda
genov
emerso
riparazioni
intermedio
contattaci
scarse
SIM
molo
richiedenti
##ryn
##orlo
Exp
##stop
Marta
insos
starai
legittima
Camping
##over
##latura
suddette
messicano
processione
1934
eccitante
acquisizione
##latori
##zzetto
editoriale
multimedia
riferire
##fone
Navy
##urora
COMP
durÃ²
gomme
serate
##onere
eson
degna
resort
declina
##Mas
TU
umanitario
carrozzeria
##HS
stampata
##Vene
##ssone
Ruth
fitosani
##propi
AP
geloso
guarire
##ZZ
Sri
bruno
Varese
innalza
porcella
##indettaglio
interrotta
risonanza
##ERCI
MIN
SIC
indizi
arrangia
frontali
PRIMA
infran
sotterraneo
Formato
Yun
##ssola
##bility
Barney
##dex
##ssura
secchi
robusto
sequestra
diciassette
##/04
grafici
Costitu
##golari
rilan
Alfredo
bloccati
##ottavo
ottieni
NBA
##Lin
materno
Ie
cittadine
garantiti
modificate
esporta
##pua
Race
muso
badare
contrabb
Madison
gettare
##zerbai
Hugo
##Text
##burgh
Mountain
rinf
Cavo
##adempimento
ModalitÃ 
medievali
##bad
Osc
##icento
PP
FL
##varo
convegni
scetti
Pul
##Francia
##oko
Giuro
corriere
Istruzione
Dana
ostaggi
cantanti
PART
1980.
##thia
unanime
compilare
Costo
##')
##fit
##lao
320
condann
lasciami
occupando
##,..
##pas
lavare
affermÃ²
soffrono
tena
attuato
crescendo
pallotto
sconfitti
degen
mercena
TRA
astrona
Campbell
multipla
##lem
parig
cilindro
battezzati
leggende
accord
##Andre
##orizzonte
Ward
##comando
##assassinio
radiazione
##linea
game
rivederti
##Conta
##birin
##signor
Montre
Wu
##ishi
Renato
Sentenza
diciotto
sciocche
danneggiare
##Articolo
inibitori
scolastici
intrattenimento
glucosio
Obiettivi
dominazione
##monare
Canarie
provviste
See
debitamente
integralmente
eretto
Wrestling
sperimentali
dicianno
##isen
Bach
zuppa
asiatici
##bico
consulenti
condividono
collocazione
Gibbs
consultato
molla
dispre
farmacia
potessimo
Riman
tribunali
Principali
##ZZA
cliniche
Capodanno
##gliera
contraente
##industri
Serge
geniale
riunito
Cavalieri
ospitalitÃ 
proporzionale
##belli
Giordano
Lloyd
210
Glas
strutturato
benedetti
270
Impero
insolito
scommesse
specialista
##nuovo
periodici
##.03.
catturati
rimanente
Parafarmacie
##/09
Travel
##avversario
##basso
##zzole
Chap
caratterizzano
prefettura
tranquilli
Dominic
##light
##ERCIO
Gay
disputÃ²
cloud
rafforz
##viamoci
informatici
peper
##polvere
resterÃ 
sostituto
##dora
itinerario
denominazioni
147
cuscino
posizionamento
algorit
##mide
traditore
apparizioni
##stems
Liver
riconoscimenti
Mail
Nash
comunicati
##ashion
culla
contesti
pervenire
Connessione
Apartment
##night
alcool
crescono
Jes
Moz
Sad
bir
GRAT
Regio
Hope
##tation
decina
##ortale
autovet
##estia
1969,
arbitra
conquistÃ²
magazzini
disciplinare
##domesti
Gaetano
##cake
##ratorie
Rafael
durevole
rimanenti
Vall
stupro
amministratori
perdona
Reggimento
##ronto
durare
Rima
tuta
limone
Kenny
superstiti
##rent
##domani
argom
feriali
telefonate
Patto
##ambasciata
attuate
atteso
##tenario
stampo
colpevoli
descrizioni
##ont
LCD
stufa
oratori
visitatore
Bielorussia
Machine
venerdi
Braccia
Arci
Liga
termale
##meranno
##abitazione
tristezza
##applica
167
adulta
##Osservatorio
doti
Presid
incapace
proiezioni
Kin
##Ele
Freder
Quinto
chiacchierata
##form
condannati
intema
##.13
##/2006
Albania
rotelle
susse
linguistiche
##ggen
Melissa
Ludovico
drammatica
##estern
##santi
rota
Edizioni
##devoli
fossa
asiatiche
##cietÃ 
atomi
under
degustazione
##tenente
##/03
dissol
Vanessa
Sna
Airlines
Castiglia
Scrittura
manifesto
SK
##zini
Anto
tamp
Parlo
anarch
atro
visualizzato
tentando
##cir
##tronde
##ttuta
Noah
chic
grigia
Harvard
dossier
mane
##Dopo
COMMERCIO
##Cams
Dela
facciate
infasti
mangimi
abbonamento
potersi
mortalitÃ 
Innanzitutto
multilaterali
133
indizio
zolfo
Project
impiegate
acquirenti
##testo
deso
##zation
Dildo
Analisi
ricercato
vs
Str
##abilitÃ 
Scienti
secondarie
##commer
##VEN
prolifera
FC
riteneva
Bowl
Î¹
##istenze
restrin
allevamento
##kespeare
versamento
RS
##-06
XXX
tetra
manipolazione
piazze
Simpson
detiene
compiuta
Christine
estetica
trascorsi
drammatico
precauzioni
##:*
ormoni
Chel
occupi
Cloud
Ras
##Stra
Week
Comunista
##zzoni
Palma
##MISSIONE
maniche
Prose
diresse
anticipa
impiegare
Ecu
stran
feedback
##ettivi
##orbimento
##here
fotografico
autorizzate
seminterrato
professionalitÃ 
attesta
missionario
specificitÃ 
##entrÃ²
Dead
Memoria
##risol
Eurostat
1917
ruba
##-2-
##dride
##efficace
scopata
##ssionale
lett
Audrey
propose
africano
Instagram
Interessante
Affitto
aggredito
##UPP
##legge
monaco
spirale
##urnal
##colore
UFF
Tanti
##rento
##IMENTO
Vanta
Ub
##mega
suore
riscossione
Rodri
##tionale
prevalenza
Edition
Amministrazioni
greggio
1987.
seppur
Girola
Lasciamo
fiere
Fatemi
##/2015
mantenuta
ambu
Riusci
##resca
Esecuzione
##ipo
multiple
trovarci
Yang
##Ru
##/81
Ey
DOP
lacune
scelse
German
Edu
Leader
##gliete
creatore
##:"
Kansas
153
##nelli
##avresti
consistere
scherzi
Funziona
prolungato
vincolanti
##mit
Great
nominata
Impo
trionfo
##kara
Stewart
nin
pig
superando
cortesemente
##dichÃ©
retto
agrarie
##indennitÃ 
RÃ©
mafia
cartoni
##liga
Legg
idrico
diverte
Ritorno
Johannes
contattarci
marinai
138
Fly
Pern
elettorali
##vete
09.
approvate
remun
BL
attribui
membrana
Gere
##We
Comba
ambizioso
eccetera
##nier
medioe
Deposito
gentilezza
auda
Dolce
##dionale
milita
inviate
conchi
##bn
Shu
tenerla
##Tro
TI
naviga
coreo
##/07
##bank
bellissime
##HI
Doppia
Rinasci
lord
dritta
sovietici
mandor
Jus
##Statistiche
##cetto
##livello
austriaci
liberarsi
##omici
50.000
Eccoti
coltivare
##unes
noleggiare
##UNESCO
oliva
evidenziare
politicamente
ripie
ausili
##lizzatore
(1,
system
MAT
Diamo
aula
radic
Roland
segnare
113
60%
Volo
breakfast
##fale
Curi
tentazione
emozionante
Over
cacao
Sing
mati
model
Recentemente
##Af
171
bombardamento
##/2017
2.3
##etudine
1986.
##denzione
sma
canne
scambiare
##gami
conca
agon
##endone
##ec
##lascia
biografia
bastardi
End
mantello
##guar
Pharma
sommitÃ 
simulazione
Palmer
##Art
panino
proprietaria
##rol
affre
rendo
Cantone
confezioni
apparecchio
concomitanza
Volks
quanta
##mettersi
Arnold
Michelle
parametro
fico
Yan
guardano
vorrebbero
sentiva
##Ã´tel
finiture
infinito
##.20.
##trÃ©
Giacobbe
Abbastanza
##fasc
condusse
deposizione
solvente
cosiddette
70%
##istoria
ribadisce
ristretto
venissero
campionamento
Sene
Dragon
SCH
ehm
##gnesio
Murray
Martini
Orti
deUa
scoperti
##cristi
##unker
pallone
ponendo
discriminazioni
Mone
##devano
compatto
Hills
Agostino
##Informazioni
Dea
Misura
desta
riprova
sopracci
greche
tumori
FIS
Trip
Ernesto
Samsung
consue
aristo
##brati
supremo
mediocre
Avendo
vestita
##1989
deliziosa
##angu
Zach
vedute
sovrani
VOL
cospic
definiscono
approfittare
##LC
##cet
Giorni
adeguare
##IFA
pugni
Manten
infinite
##ENS
Pr
##porti
##resciuto
##Prezzo
FORMA
speravo
##lur
##ync
combattendo
snow
dioces
policy
##equazione
occupÃ²
##dinamica
cosicchÃ©
##estin
Informativa
1200
scafo
misero
condensa
postali
Ashley
lavoriamo
##band
Indipen
Preferisco
Indiana
controparti
##ERG
sfere
##altronde
umanitÃ 
Eccellenza
Voce
Leg
affermazione
##derne
insistito
centesimi
poliestere
ski
##-2.
imbe
##rerie
secre
pondera
ridi
sabbi
Mix
precisato
148
Meravi
##golamento
incantesimo
##podi
131
Rain
proteina
##valutazione
##ossigeno
IntraText
CG
indicando
Heart
Torres
discuti
Godetevi
intervista
continueranno
idri
giocano
Civi
azoto
Louise
biologia
cappuccio
1925
##ungsteno
Regia
previo
presupposto
estro
Winston
##.14
Guide
##inghe
raso
forfetta
"(
4.3
Child
Nicol
concentrare
##UB
ratti
Shane
##globina
##isolamento
1926
Latte
studioso
concentrata
Tw
terminal
scimmia
Sheldon
inevitabilmente
evita
Connor
em
Trovare
Rat
Basti
Peggy
cooperare
abile
cloro
##ked
ano
Provi
##fluo
ligu
patologie
suddivisi
##cari
maestra
ostello
auspicabile
lievi
cacciatori
sistematica
sormon
Sovrano
esagerato
assorb
mutande
svantaggiate
Nou
violenze
Soluzioni
mine
nervi
##ffie
....
illus
##margina
conteneva
##ppen
Develo
prenderemo
sparatoria
##rys
Cis
consegne
cancellati
Sten
chio
Thompson
Democratico
##hill
opporsi
Identi
Sapevi
aprendo
traduce
##mediale
sviluppano
ip
Gand
fines
##tell
risu
camer
yacht
portoghesi
##garlo
##nieri
invol
cresta
rilevamento
decentra
somiglianza
Commis
country
cogni
##ispettore
manoscritto
straordinarie
bike
Tavolo
maglie
pregio
Firefox
Assisi
##chten
Mussolini
collaboratore
139
stagno
tornera
##venture
secondari
siediti
dicevano
##tary
cavitÃ 
##sensi
giovano
mozione
##appropria
##wall
Ghe
1900
trio
##editore
disperazione
sporca
Offic
strapp
##'1,
segmenti
##Oli
##certo
##gnone
##ineamento
riuscite
##sezione
fidarmi
##ammontare
luminose
gregge
bevanda
sconosciuti
valorizzare
mammiferi
sga
limpi
Wilhel
dimostrÃ²
gioiello
seggi
accertare
selvaggia
Field
fumetto
##vada
124
manoscritti
ubriaca
Batman
Concordanze
Gin
##glicemia
##rpe
1.6.
pino
##andali
##cock
Prov
guardami
##ominazione
##.08.
visuale
DM
##fichi
invecchia
##Sei
fragile
nascoste
inglo
##gliando
Giordania
Rif
Manca
Potrete
Bucarest
rafforzata
Shakespeare
##Ul
raccomand
necessitano
##ulin
franca
##UI
Bayer
Marti
Villaggio
calzature
rilevazione
##mandosi
ribelle
Magnifico
NUOV
##lude
##antichitÃ 
rinnovare
individuati
Galla
##ccabile
Niki
Patologie
Eze
Juven
sorse
accadrÃ 
Fronte
permessi
ei
PROP
##bec
Mart
##rick
proibito
singolarmente
PUBBLIC
galassia
direttrice
spiegh
Danubio
guidando
Mezza
analizzato
##ordinazione
provocando
96/
sperando
impulsi
##omin
1932
Acca
velocita
Jet
etrus
client
24/7
Accanto
Colorado
agiscono
massimale
rass
Research
sostitui
preparate
LunedÃ¬
MartedÃ¬
Responsabile
abitano
dipingere
modernizzazione
Manif
playoff
colorato
intendere
Amal
cave
socia
magnetica
coefficiente
##IGN
esige
studiando
##As
Orlando
Colin
##yu
asser
ambascia
cominciando
sciocco
##altera
moderata
##ttin
spostarsi
Merc
alleanza
Fame
Loira
acustico
rifornimento
registrano
##ANTI
Lor
Paige
patati
Tranquilla
consiglieri
##onso
vaste
sii
hockey
spagnole
##Cro
ammissione
pulizie
stronzi
Economia
aeromobili
##valle
Bailey
Engine
Assicurati
##-09
Fr
rabb
cessazione
scavare
elicottero
diplomatico
72/
Lydia
selvaggio
Applicazione
retrocessione
FE
##uman
##dka
rendersi
ragionevoli
frui
aiutarli
Anda
4.4
##tudini
##ulu
disegnare
##OMO
##hoven
NOTA
affol
##italiana
Montana
incidere
PÃ©
20:
Janet
##unzio
##alizzata
interprete
##cite
fidanzati
Disti
confessare
Wade
invio
ginnastica
giustificazione
intrinse
##peto
Strano
affermano
Four
##Inferno
##Anna
##tanzaro
Repubbli
predecessore
sabo
we
tesa
##OLA
tariffari
storicamente
##Nella
palo
resina
avvicinare
Kirk
Outlook
intento
interviene
contaminazione
##ones
RES
##Centro
pedon
pagata
pseudonimo
orientata
trasformando
Perry
scusami
rapiditÃ 
annullato
Craig
spegnere
subordinata
bombardamenti
##Men
impiega
animazione
##onente
disturb
##emittente
Missi
cinta
Cliente
attribuiti
##dimensionale
132
##corre
Ricky
##quisiti
ingenti
delusione
stipulato
altitudine
obbligatorie
ane
##ccini
arrivate
##onese
strategiche
##/2016
CapacitÃ 
chiedeva
##lez
tex
Posta
Girolamo
##ffy
alibi
altare
Miranda
schermi
##amate
##annata
##osero
violato
zinco
denunciato
2-1
Greco
Intera
##Via
manico
Pensiamo
##tric
catastrofe
##.2001
guardati
favorevolmente
Kam
Adrian
presentando
RICE
fondare
valgono
celebrazioni
##pidi
##ulina
calmati
##trite
##ensive
Compressa
##kÃ©
averli
##ECU
##vismo
sione
rivolgere
rue
##avesse
Valentine
coloniale
Procuratore
##AMB
##MISUMI
##visori
chiamarti
citate
MIS
##ffre
bagnato
successa
lenzuola
conquistando
##OND
##dopo
##Contin
stara
##.22
LIN
(2),
Reli
anticorpi
##gent
(22
unÃ¬
accendere
720
mensa
recepimento
commessi
GM
Clare
gonna
##epidemia
tragitto
##guez
plane
maltra
abbandonati
Cano
Rail
Olio
##iper
Cfr
+49
##Ã¤r
##eley
egu
##ATORE
provvede
presuppone
Brindisi
imponente
affrontando
Sab
##SD
##Cha
Programmi
##atrio
oscilla
Å”
PVC
Head
eredita
spontanea
geometria
##copia
Lione
sogna
Cele
Amber
Baker
macina
triangolo
osservando
MO
Minneso
Flynn
Distribuzione
rigorosamente
1010
Scor
equivale
tranquillamente
##amante
stimolo
##artiglieria
EF
##immer
##terolo
Hur
Reed
Maurice
pesantemente
##stadt
##SPAZIO
registi
##kos
Stammi
2Â°
umore
puzzle
votazioni
Balcone
antibiotici
pepe
vola
secche
##Anche
Fam
serale
ordinati
Conn
donazioni
interloc
##Mus
##vestono
nebbia
ripeto
tributo
scattare
Singolare
considerarsi
Dog
vicinato
##Ani
##Sch
##minis
CHI
distinto
Minnesota
Tecnologia
Prende
caloro
videro
rafforzato
##vinezza
corrette
vegetari
##gard
##programma
diminu
Lana
Svilu
##grada
Colonna
umanitari
fantascienza
PAG
Glenn
portico
impero
midollo
gravita
##site
Earl
Avrai
Spagnolo
omologazione
Lima
##chessa
##elettron
ATP
inviti
insoddis
transeuropee
Cus
Ingresso
decorata
serpenti
##cciola
Kenya
Dovremo
giornaliero
empi
Situata
Buck
Tanzania
apostolica
volontariamente
(-
letta
##Madonna
enzimi
avverrÃ 
riquali
Sba
muti
Nacque
##Occidente
Viaggiando
Bundes
1931
dorato
##Ste
##eccellenza
1921
##master
relatori
##_2
pugi
##mei
ill
##1999,
##adine
anor
Lancia
carbo
motel
##laska
riavere
##-29
SÃ£o
SPEC
##gativo
Gesti
Posto
gestori
giungla
##oll
3.5
accorge
indenni
socialisti
inne
Veronica
precipitazioni
restaurato
##bolo
raffre
comunita
quadrata
##arina
acquatici
##HE
Visite
##verly
WWE
##/2013
##revole
136
gotico
##uh
##crate
##ssine
##YN
sodo
scudi
##atherine
incredibili
1913
lealtÃ 
19:
Grosseto
##orf
german
immagin
disgustoso
gar
israelia
##trini
psich
martello
continuava
manifestare
prestigiosa
stop
##anie
##zra
pillola
ambientato
biblica
verrai
##19,
candida
Rinascimento
".
coniuga
##erni
##pini
cosmetici
Zio
ricorre
ispezione
tariffarie
recitazione
rappresentava
pago
##uver
##etts
Gall
##cologia
rubata
buttare
orbita
Analoga
interre
fitti
gratta
rappresenti
##tsch
trin
##chiato
spicca
Regioni
accetto
tragica
Mans
Wendy
estranei
palcoscenico
##mostra
immigrazione
coagu
tromb
Coloro
agriturismi
longitudine
automobilistico
acciai
mutuo
udi
vulcano
##ssee
pavi
##Let
##annoni
Elia
sconvolto
##ANS
Yach
##.25
(8)
1923
organica
Liverpool
##cast
spaventa
##operabilitÃ 
cardinali
applicando
fren
vente
Basket
maschere
sparse
godersi
##dee
##ENE
##vela
levi
estese
commemora
##.00.
##ancora
grata
usiamo
contadino
Socc
Wis
aiutami
intermedi
metallici
confermano
ghiacciaio
rigide
Cremona
##TL
##))
nov
propriamente
Madame
pazzia
SETT
formule
mosaico
rivelata
##Ã¨i
##ssitÃ 
Primavera
fidanzamento
organizzando
profilazione
##kir
Orari
##mous
Bart
coerenti
##fli
1910
regolamentare
arrabbiare
specu
plastiche
molecolare
avvisato
collabor
##mpato
folli
portuale
animato
esaurito
coordinato
Mica
proseguito
##Î¿Ï…
1984.
eliminando
##Alleanza
basale
Computer
vitamine
##WS
onesti
paraca
Queens
emergere
##gow
svoltasi
##AST
autentica
prive
Regalo
giustificato
##ANDO
##ilette
patrio
vedevo
Premier
egoista
parallele
parroco
peculiaritÃ 
080
##sene
gine
proteggerti
##risma
##gennaio
##cinqu
##eling
Fore
coniugi
incentrata
##mberg
Obama
affrontano
##udale
sant
Round
##ttia
GUC
sfavore
##fÃ©
##arbi
gliene
recitato
Basilea
Specialmente
Drake
Pearl
pomodori
indiretta
##wagen
##onora
1922
##dicenne
ostilitÃ 
Streamate
altrui
Piacenza
progress
Pontificio
146
##rizia
periferiche
feti
funzionante
##dinese
##oldo
Shop
##appari
##ratoria
Meredith
effettuano
Ã˜
virtu
Nikola
residuo
congratularmi
tocchi
Â±
Elliot
Sindaco
Wallace
cappelle
transazione
##illes
##liamo
##neranno
mediazione
parallelamente
Meda
Rece
distrugger
##MUS
##sistema
Adriano
diagramma
mitraglia
##32/
##eriempi
Private
##IDA
'80
rumori
stagionali
maturazione
##vian
##ssetto
spieghi
Fasc
Ritiro
##wie
Drew
caratteristici
Recupera
prosie
pianificato
##liato
Volley
partecipante
borghese
Britann
Mick
Swiss
svizzeri
raffigura
moltissimi
##audizione
metallico
Vali
ammira
Utilizziamo
##verare
Utenti
attiene
Seria
##etica
12:00
preriempi
scomparire
##7).
marciapie
This
progressione
##tem
ghiando
massiccia
rivestito
fotograf
prosieguo
Swe
##estrema
##Anti
Buddha
sentiti
##spedia
multilin
Zen
audit
Comunale
##room
scimmie
mangiando
##lavori
mensili
scrittrice
GIOR
sieda
morirÃ 
stronzata
##fonda
perquisi
attaccata
retribuzioni
##tÃ¤
finisca
##RS
##individuazione
guscio
GiovedÃ¬
##boni
getto
TIC
Infer
Mettiti
##chini
Salmo
parleremo
Chang
##stinale
mag
tagliata
attrazione
##riate
##resce
Vesti
ripres
fertilitÃ 
##scenza
vaniglia
omosessuali
Missione
##thor
SOS
grido
incas
teniamo
Produttore
AUTORIZZAZIONE
Miglior
legislatura
suggeriscono
diar
##1-
appic
capitato
pretesto
VIP
alterazioni
potabile
##TIL
matti
Ï‡
##verla
averle
fascicoli
maternitÃ 
approfitta
Î¡
SIS
Vivi
Eugenio
coordinata
desiderata
##urati
Diventa
monopolio
dic
##mettimi
pazzesco
regalato
riscontrato
##gang
##tosa
21:
Islanda
rallenta
respinta
contrasti
ferroviari
##.05.
Novara
quercia
sposarmi
parlÃ²
##compresi
##craft
Daisy
fidare
antagon
nominÃ²
bagaglio
management
##GP
Visconti
Seminario
Eno
Fabrizio
universitaria
2.4
Aprite
ambasciatore
risolve
complimenti
##voloso
patro
distinguono
Janeiro
impegnate
##deon
Mazza
multilaterale
##rique
Manufa
identica
Consigliato
Pag
cappotto
combatter
Zoo
##Pla
solita
duecento
trasportato
##mola
Salon
##.04.
1408/
##reranno
cammin
Subspedia
coincide
##-22
##testa
suini
atteggiamenti
##HA
##wboy
##Ã¨res
fogna
house
menzogna
##pari
promosse
congressi
##kis
picchiato
site
gabinetto
Tina
Atlantico
proprietÃƒ
semifinali
xeno
scemo
Bishop
Laurel
idonei
Martina
disciplin
##inese
Arabi
##getti
suina
mentalitÃ 
compilazioni
rio
Accademia
##++
##Note
Allison
Traccia
neonati
##6),
##popo
##beria
##orror
Austra
animata
governare
blocca
volerlo
(28
134
vedrete
cooperativa
Party
docenti
compatta
##Sc
Om
##iete
##ominata
Appartiene
Kr
ricostruita
##EFTA
##vich
Ere
NFL
Carti
Matri
Pistoia
istinto
padrona
contraff
280
1911
manualmente
PES
##zoo
Heather
teorico
Immagina
##opportunita
compromessi
Alec
rocca
domini
##nese
ripartire
appoggiato
##Win
##ctive
segretariato
ammissibile
cooperative
##mbria
ampliata
distribuite
##molo
nipoti
Catanzaro
vescovile
transnazionale
##mizzazione
Interessi
basandosi
indicativo
continuarono
##RC
Dexter
fidati
imputa
Science
serviranno
##onibile
Scarpe
HP
##erli
Marvel
bizantino
##pital
##Uruguay
coprono
##infrazione
Groen
ipocri
montare
periodico
##LET
Persino
Spar
Migliori
##Stu
abbattere
emble
bellezze
diminuito
primogenito
ghe
##umore
armon
addebi
Michigan
690
Phoenix
streaming
##abito
Corsica
piange
attenzioni
congratulazioni
##assol
Calcolo
##him
afflu
fucili
metterla
Poste
attuata
chirurgico
##mburger
##Ener
Steel
apparen
escursion
dÃ©
mt
##aula
inconta
otte
artistici
prospetto
Ruo
assogg
Intorno
Documenti
Guer
tappo
protestante
34,
riunire
Drive
furbo
##razziale
##.6
##8),
##lerÃ²
##omologazione
##gala
acquisite
##cotta
Ordini
storto
distrugge
Scaricando
Dovevi
incentrato
irro
RELAZIONI
farmaceutica
Kos
Corsi
##prop
##cioni
##udson
Tags
jeans
creazioni
babysitter
Pescara
cerimonie
##psi
##condi
Staff
sedersi
nau
##princi
quotidianamente
Kun
##enile
demolizione
1982.
manic
riflettono
Ax
##uneo
abitata
Dettaglio
ricostruito
illegi
â†’
Cav
individua
ferme
fermarmi
touchdown
sembro
discografico
Im
pattina
chiamarla
##Ã¨ne
bed
vidi
Messia
Trovato
##cey
Igna
rapita
poltrona
##ggiÃ¹
direttori
##onori
diamine
Riguarda
##osservanza
##cl
lassÃ¹
stupra
riprodurre
Piani
Fashion
restante
piÃƒ
cambiate
Has
Stein
##atemala
splen
Jeffer
Maison
37,
Erica
Pronta
Soluzione
conversazioni
##wy
TIF
Amelia
spettacolari
immaginazione
aderito
rivolti
intervenuti
##ostri
sconfisse
spiritualitÃ 
personalizzata
vieta
Archeo
PUBBLICITÃ€
ammetterlo
proventi
complemento
esen
Lasciala
orecchini
last
giovinezza
sg
Stando
accordato
trasferta
##osio
proceduto
UV
##tutti
##bber
meraviglie
##taine
Maesta
mirano
##ccessibilitÃ 
Dion
Uffici
##ÃŸe
Magic
Carrara
vuoti
abilita
Microbla
##dicina
Ascolti
Residenza
MAN
##Islam
##elio
##enni
bilaterale
armonizzare
88/
Lama
discepolo
137
Ester
copyright
Genera
diarrea
Prendere
endovenosa
titan
coniuge
editore
valutata
NASA
trae
emotivo
##visor
2.1.
templi
Diocesi
##Sha
api
evo
piogge
Comprende
dl
presieduta
Gino
multinazionali
##RIZIONE
Grazia
##cciati
Organi
##-40
##denziali
Storico
duello
##titolo
Baia
##lomera
2019,
squalo
avreste
curriculum
finanziate
pertinenza
39,
Recensione
##60/
##conda
metallica
risultanti
##buli
##Algeria
truffa
Indovina
moti
mancava
ricordati
pattuglia
collaborazioni
##xx
##cida
Distru
pronun
riguardava
##questo
Bass
Duke
vinile
Medicina
soddisfatte
squilibri
Rosen
movente
VIA
arricch
Specifiche
gentiluomo
transitorie
##999
##apice
torte
report
alzato
candele
Juventus
Pasquale
##tima
mansioni
##fatta
##eler
##dua
##lletto
restiamo
fotovolta
##audio
Sceriffo
Descri
Comfort
pongono
Cd
ammazzare
ATTIV
##camento
mountain
ribella
Punteggio
simbolico
surre
frumento
##jk
Carla
sacchetto
Bib
##ggente
continenti
Tul
ChissÃ 
riceverÃ 
apportate
interromp
presidenziali
##disco
Prosp
##compati
buchi
circondano
##scina
Passi
contes
accento
Asciuga
##ses
MEM
##penia
##Albania
Scul
appetito
##marla
avverte
passerÃ 
stampati
##bei
##ading
Poly
Alpha
accadde
imminente
ritrovano
##vro
Quick
##nÃ©e
##chusetts
ricercare
##artigianato
piemontese
##Armata
coperchio
taglie
stampante
costruttivo
##cams
##super
##pine
##thal
Masters
##allenamento
somministrata
79/
##eto
nÃ¨
Sharon
fascismo
patologia
linguistico
##sorio
Suoi
prepararsi
fl
##sionale
trasversale
cute
insufficienti
Board
fiamm
142
97/
Ire
##Prima
vigoro
sepoltura
(45
scan
los
##corpo
Market
Permette
##doglio
rinascita
Hat
Avery
Conference
##profe
blin
potendo
boutique
artigianali
Sola
##Fon
76/
##ugoslava
##Än
##meccan
Estra
abbandonÃ²
141
Rimani
tappeti
domand
perple
Analogamente
deterioramento
'7
costringe
piastrelle
LÃ©
##script
1983.
appropriati
KÃ¶
Sw
Pali
Ingegn
trattasse
sacre
portuali
spaziose
##UNIONE
catture
Salvo
Produttori
Honda
Viaggi
Florence
Illustrazione
##mpamento
##/08
##bani
dara
Stavi
traghetto
verti
illustrare
Collabo
Scritto
serviti
Duncan
psicologico
critto
danesi
codecisione
impieghi
##liday
reni
Ricerche
tungsteno
##fy
estive
predicare
facen
avvenga
portatori
##Du
Bull
Kaza
Newton
##.21
##tterdam
Agenda
32,
attendono
##birinto
Curtis
3.000
aiutata
fregato
Troy
##erante
##tuito
borghi
MERCATO
Katherine
innamorati
##eep
Gare
Poggio
recano
litigato
contribuÃ¬
automatici
Seni
Raffaele
04.
Natalie
riconoscer
##Dia
##sul
##LAN
proponendo
Inca
usava
Racconta
##file
Giudei
democratiche
organizzatori
yoga
frammento
cinghia
presieduto
continuiamo
SEO
Tris
assorti
chiudendo
quotidiane
143
sapremo
rigorosa
##SON
rial
##.16
materna
Pensione
connet
Porsche
##invenzione
riportano
competitivi
scatto
fermarti
Preferirei
##Storia
Kane
Uccidi
##biezione
Gilbert
Commission
stanziamento
##***
##lera
congiuntura
accurata
elaborate
aperture
FU
##bles
##mbolo
Xbox
Silvia
â€™,
##illi
##____
tenutasi
##giÃ²
nocivi
Provenza
ortofrutticolo
comico
NiccolÃ²
alleviare
##deter
cameriere
Cava
citt
ricopre
##Acquistare
Presi
capri
cravatta
Pure
Tracy
infelice
pomodoro
promuovendo
prematura
convincente
TEM
##ships
Antio
Chiaro
datato
Ascensore
commentato
##onne
instaurare
##amministratore
##7),
##ONOM
##Tran
Aleks
lungom
longitu
##KA
Farma
bottone
Ammi
arrivera
volatili
##rotta
ribatte
##ausilio
Frances
vulnerabile
Cantiere
rumo
Boris
##uccello
##carti
baci
##eletto
rating
##zÃ¡
difeso
pendici
##acidi
ininterro
##ogni
PRENO
##anesi
##attura
Algeria
affascinanti
made
##minali
Security
DÃ©
Facile
prendero
vaccinazione
##Solo
Megan
##dipendenza
##tube
260
abituato
##cetti
##juana
##logan
Balti
verifiche
##hua
menzionata
sufficienza
##veno
1979.
##ffasc
Friend
Clinton
ecclesiastica
Personale
protra
reattori
Oak
##turco
sobb
##nee
emittenti
arrestati
1999/
Album
Splendi
assegnate
danneggiati
viaggiatore
adun
Guatemala
interconne
professori
multimediale
las
mandÃ²
Limited
esercitano
##bwe
[...]
